#include "magic_wand_model_data.h"


// We need to keep the data array aligned on some architectures.

#ifdef __has_attribute

#define HAVE_ATTRIBUTE(x) __has_attribute(x)

#else

#define HAVE_ATTRIBUTE(x) 0

#endif

#if HAVE_ATTRIBUTE(aligned) || (defined(__GNUC__) && !defined(__clang__))

#define DATA_ALIGN_ATTRIBUTE __attribute__((aligned(4)))

#else

#define DATA_ALIGN_ATTRIBUTE

#endif


const unsigned char g_magic_wand_model_data[] DATA_ALIGN_ATTRIBUTE = {

  // Paste the data of the char array in `src/model.cc` here
  0x08, 0x00, 0x00, 0x00, 0x54, 0x46, 0x4c, 0x33, 0x62, 0xff, 0xff, 0xff,
  0x03, 0x00, 0x00, 0x00, 0x10, 0x00, 0x00, 0x00, 0x24, 0x00, 0x00, 0x00,
  0x78, 0x00, 0x00, 0x00, 0x24, 0x00, 0x00, 0x00, 0x05, 0x00, 0x00, 0x00,
  0x78, 0x05, 0x00, 0x00, 0xb0, 0x04, 0x00, 0x00, 0xe0, 0x02, 0x00, 0x00,
  0x60, 0x02, 0x00, 0x00, 0x54, 0x01, 0x00, 0x00, 0x01, 0x00, 0x00, 0x00,
  0x78, 0x00, 0x00, 0x00, 0x13, 0x00, 0x00, 0x00, 0x18, 0x30, 0x00, 0x00,
  0x14, 0x30, 0x00, 0x00, 0x20, 0x2f, 0x00, 0x00, 0xa8, 0x2e, 0x00, 0x00,
  0x3c, 0x2e, 0x00, 0x00, 0xec, 0x11, 0x00, 0x00, 0x98, 0x10, 0x00, 0x00,
  0xbc, 0x0e, 0x00, 0x00, 0x60, 0x06, 0x00, 0x00, 0xfc, 0x05, 0x00, 0x00,
  0x78, 0x05, 0x00, 0x00, 0xec, 0x2f, 0x00, 0x00, 0xe8, 0x2f, 0x00, 0x00,
  0xe4, 0x2f, 0x00, 0x00, 0xe0, 0x2f, 0x00, 0x00, 0xdc, 0x2f, 0x00, 0x00,
  0xd8, 0x2f, 0x00, 0x00, 0xd4, 0x2f, 0x00, 0x00, 0xd0, 0x2f, 0x00, 0x00,
  0x0f, 0x00, 0x00, 0x00, 0x4d, 0x4c, 0x49, 0x52, 0x20, 0x43, 0x6f, 0x6e,
  0x76, 0x65, 0x72, 0x74, 0x65, 0x64, 0x2e, 0x00, 0x00, 0x00, 0x0e, 0x00,
  0x18, 0x00, 0x04, 0x00, 0x08, 0x00, 0x0c, 0x00, 0x10, 0x00, 0x14, 0x00,
  0x0e, 0x00, 0x00, 0x00, 0x14, 0x00, 0x00, 0x00, 0x5c, 0x00, 0x00, 0x00,
  0x60, 0x00, 0x00, 0x00, 0x64, 0x00, 0x00, 0x00, 0x84, 0x00, 0x00, 0x00,
  0x12, 0x00, 0x00, 0x00, 0x48, 0x2f, 0x00, 0x00, 0xe4, 0x2e, 0x00, 0x00,
  0x3c, 0x2e, 0x00, 0x00, 0xd8, 0x2d, 0x00, 0x00, 0x70, 0x2d, 0x00, 0x00,
  0x1c, 0x11, 0x00, 0x00, 0xc0, 0x0f, 0x00, 0x00, 0xe4, 0x0d, 0x00, 0x00,
  0xa0, 0x05, 0x00, 0x00, 0x3c, 0x05, 0x00, 0x00, 0xb0, 0x04, 0x00, 0x00,
  0xe8, 0x03, 0x00, 0x00, 0x38, 0x03, 0x00, 0x00, 0xa4, 0x02, 0x00, 0x00,
  0x10, 0x02, 0x00, 0x00, 0x90, 0x01, 0x00, 0x00, 0xfc, 0x00, 0x00, 0x00,
  0x80, 0x00, 0x00, 0x00, 0x01, 0x00, 0x00, 0x00, 0x00, 0x00, 0x00, 0x00,
  0x01, 0x00, 0x00, 0x00, 0x11, 0x00, 0x00, 0x00, 0x08, 0x00, 0x00, 0x00,
  0x1c, 0x04, 0x00, 0x00, 0x58, 0x03, 0x00, 0x00, 0xc8, 0x02, 0x00, 0x00,
  0x24, 0x02, 0x00, 0x00, 0xac, 0x01, 0x00, 0x00, 0x10, 0x01, 0x00, 0x00,
  0x94, 0x00, 0x00, 0x00, 0x10, 0x00, 0x00, 0x00, 0x04, 0x00, 0x00, 0x00,
  0x6d, 0x61, 0x69, 0x6e, 0x00, 0x00, 0x00, 0x00, 0x8e, 0xff, 0xff, 0xff,
  0x00, 0x00, 0x00, 0x09, 0x04, 0x00, 0x00, 0x00, 0x1c, 0x00, 0x00, 0x00,
  0x10, 0x00, 0x00, 0x00, 0x04, 0x00, 0x00, 0x00, 0x0a, 0xd2, 0xff, 0xff,
  0x00, 0x00, 0x80, 0x3f, 0x01, 0x00, 0x00, 0x00, 0x11, 0x00, 0x00, 0x00,
  0x01, 0x00, 0x00, 0x00, 0x10, 0x00, 0x00, 0x00, 0xf6, 0xfb, 0xff, 0xff,
  0x00, 0x00, 0x00, 0x19, 0x01, 0x00, 0x00, 0x00, 0x8a, 0xd1, 0xff, 0xff,
  0x10, 0x00, 0x00, 0x00, 0x12, 0x00, 0x00, 0x00, 0x14, 0x00, 0x00, 0x00,
  0x20, 0x00, 0x00, 0x00, 0x02, 0x00, 0x00, 0x00, 0x01, 0x00, 0x00, 0x00,
  0x04, 0x00, 0x00, 0x00, 0x08, 0x00, 0x00, 0x00, 0x49, 0x64, 0x65, 0x6e,
  0x74, 0x69, 0x74, 0x79, 0x00, 0x00, 0x00, 0x00, 0xc4, 0xd1, 0xff, 0xff,
  0x00, 0x00, 0x0e, 0x00, 0x18, 0x00, 0x08, 0x00, 0x0c, 0x00, 0x10, 0x00,
  0x07, 0x00, 0x14, 0x00, 0x0e, 0x00, 0x00, 0x00, 0x00, 0x00, 0x00, 0x08,
  0x03, 0x00, 0x00, 0x00, 0x18, 0x00, 0x00, 0x00, 0x0c, 0x00, 0x00, 0x00,
  0x04, 0x00, 0x00, 0x00, 0x98, 0xd1, 0xff, 0xff, 0x01, 0x00, 0x00, 0x00,
  0x10, 0x00, 0x00, 0x00, 0x03, 0x00, 0x00, 0x00, 0x0f, 0x00, 0x00, 0x00,
  0x05, 0x00, 0x00, 0x00, 0x02, 0x00, 0x00, 0x00, 0x02, 0xd2, 0xff, 0xff,
  0x10, 0x00, 0x00, 0x00, 0x11, 0x00, 0x00, 0x00, 0x14, 0x00, 0x00, 0x00,
  0x30, 0x00, 0x00, 0x00, 0x02, 0x00, 0x00, 0x00, 0x01, 0x00, 0x00, 0x00,
  0x04, 0x00, 0x00, 0x00, 0x1a, 0x00, 0x00, 0x00, 0x73, 0x65, 0x71, 0x75,
  0x65, 0x6e, 0x74, 0x69, 0x61, 0x6c, 0x2f, 0x64, 0x65, 0x6e, 0x73, 0x65,
  0x5f, 0x31, 0x2f, 0x42, 0x69, 0x61, 0x73, 0x41, 0x64, 0x64, 0x00, 0x00,
  0xf4, 0xd1, 0xff, 0xff, 0xd6, 0xfd, 0xff, 0xff, 0x00, 0x00, 0x00, 0x08,
  0x03, 0x00, 0x00, 0x00, 0x24, 0x00, 0x00, 0x00, 0x18, 0x00, 0x00, 0x00,
  0x0c, 0x00, 0x00, 0x00, 0x00, 0x00, 0x06, 0x00, 0x08, 0x00, 0x07, 0x00,
  0x06, 0x00, 0x00, 0x00, 0x00, 0x00, 0x00, 0x01, 0x01, 0x00, 0x00, 0x00,
  0x0f, 0x00, 0x00, 0x00, 0x03, 0x00, 0x00, 0x00, 0x0e, 0x00, 0x00, 0x00,
  0x04, 0x00, 0x00, 0x00, 0x01, 0x00, 0x00, 0x00, 0xfe, 0xfc, 0xff, 0xff,
  0x00, 0x00, 0x00, 0x09, 0x01, 0x00, 0x00, 0x00, 0x92, 0xd2, 0xff, 0xff,
  0x10, 0x00, 0x00, 0x00, 0x10, 0x00, 0x00, 0x00, 0x14, 0x00, 0x00, 0x00,
  0x2c, 0x00, 0x00, 0x00, 0x02, 0x00, 0x00, 0x00, 0x01, 0x00, 0x00, 0x00,
  0x10, 0x00, 0x00, 0x00, 0x15, 0x00, 0x00, 0x00, 0x73, 0x65, 0x71, 0x75,
  0x65, 0x6e, 0x74, 0x69, 0x61, 0x6c, 0x2f, 0x64, 0x65, 0x6e, 0x73, 0x65,
  0x2f, 0x52, 0x65, 0x6c, 0x75, 0x00, 0x00, 0x00, 0xd8, 0xd2, 0xff, 0xff,
  0x00, 0x00, 0x0a, 0x00, 0x10, 0x00, 0x04, 0x00, 0x08, 0x00, 0x0c, 0x00,
  0x0a, 0x00, 0x00, 0x00, 0x02, 0x00, 0x00, 0x00, 0x10, 0x00, 0x00, 0x00,
  0x04, 0x00, 0x00, 0x00, 0x01, 0x00, 0x00, 0x00, 0x0e, 0x00, 0x00, 0x00,
  0x02, 0x00, 0x00, 0x00, 0x0d, 0x00, 0x00, 0x00, 0x03, 0x00, 0x00, 0x00,
  0x7a, 0xfd, 0xff, 0xff, 0x00, 0x00, 0x00, 0x16, 0x01, 0x00, 0x00, 0x00,
  0x0e, 0xd3, 0xff, 0xff, 0x10, 0x00, 0x00, 0x00, 0x0f, 0x00, 0x00, 0x00,
  0x14, 0x00, 0x00, 0x00, 0x30, 0x00, 0x00, 0x00, 0x02, 0x00, 0x00, 0x00,
  0x01, 0x00, 0x00, 0x00, 0x70, 0x00, 0x00, 0x00, 0x1a, 0x00, 0x00, 0x00,
  0x73, 0x65, 0x71, 0x75, 0x65, 0x6e, 0x74, 0x69, 0x61, 0x6c, 0x2f, 0x66,
  0x6c, 0x61, 0x74, 0x74, 0x65, 0x6e, 0x2f, 0x52, 0x65, 0x73, 0x68, 0x61,
  0x70, 0x65, 0x00, 0x00, 0x00, 0xd3, 0xff, 0xff, 0xe2, 0xfe, 0xff, 0xff,
  0x00, 0x00, 0x00, 0x05, 0x01, 0x00, 0x00, 0x00, 0x38, 0x00, 0x00, 0x00,
  0x2c, 0x00, 0x00, 0x00, 0x14, 0x00, 0x00, 0x00, 0x00, 0x00, 0x0e, 0x00,
  0x14, 0x00, 0x00, 0x00, 0x10, 0x00, 0x0c, 0x00, 0x08, 0x00, 0x04, 0x00,
  0x0e, 0x00, 0x00, 0x00, 0x03, 0x00, 0x00, 0x00, 0x01, 0x00, 0x00, 0x00,
  0x03, 0x00, 0x00, 0x00, 0x01, 0x00, 0x00, 0x00, 0x01, 0x00, 0x00, 0x00,
  0x0d, 0x00, 0x00, 0x00, 0x01, 0x00, 0x00, 0x00, 0x0c, 0x00, 0x00, 0x00,
  0x9e, 0xd3, 0xff, 0xff, 0x10, 0x00, 0x00, 0x00, 0x0e, 0x00, 0x00, 0x00,
  0x1c, 0x00, 0x00, 0x00, 0x40, 0x00, 0x00, 0x00, 0x04, 0x00, 0x00, 0x00,
  0x01, 0x00, 0x00, 0x00, 0x07, 0x00, 0x00, 0x00, 0x01, 0x00, 0x00, 0x00,
  0x10, 0x00, 0x00, 0x00, 0x22, 0x00, 0x00, 0x00, 0x73, 0x65, 0x71, 0x75,
  0x65, 0x6e, 0x74, 0x69, 0x61, 0x6c, 0x2f, 0x6d, 0x61, 0x78, 0x5f, 0x70,
  0x6f, 0x6f, 0x6c, 0x69, 0x6e, 0x67, 0x32, 0x64, 0x5f, 0x31, 0x2f, 0x4d,
  0x61, 0x78, 0x50, 0x6f, 0x6f, 0x6c, 0x00, 0x00, 0xa0, 0xd3, 0xff, 0xff,
  0xc2, 0xfe, 0xff, 0xff, 0x00, 0x00, 0x00, 0x01, 0x24, 0x00, 0x00, 0x00,
  0x18, 0x00, 0x00, 0x00, 0x04, 0x00, 0x00, 0x00, 0xb4, 0xfe, 0xff, 0xff,
  0x01, 0x00, 0x00, 0x00, 0x01, 0x00, 0x00, 0x00, 0x00, 0x00, 0x00, 0x01,
  0x01, 0x00, 0x00, 0x00, 0x0c, 0x00, 0x00, 0x00, 0x03, 0x00, 0x00, 0x00,
  0x0b, 0x00, 0x00, 0x00, 0x07, 0x00, 0x00, 0x00, 0x09, 0x00, 0x00, 0x00,
  0x2e, 0xd4, 0xff, 0xff, 0x10, 0x00, 0x00, 0x00, 0x0d, 0x00, 0x00, 0x00,
  0x1c, 0x00, 0x00, 0x00, 0x2c, 0x00, 0x00, 0x00, 0x04, 0x00, 0x00, 0x00,
  0x01, 0x00, 0x00, 0x00, 0x15, 0x00, 0x00, 0x00, 0x01, 0x00, 0x00, 0x00,
  0x10, 0x00, 0x00, 0x00, 0x0c, 0x00, 0x00, 0x00, 0x74, 0x66, 0x6c, 0x2e,
  0x63, 0x6f, 0x6e, 0x76, 0x5f, 0x32, 0x64, 0x31, 0x00, 0x00, 0x00, 0x00,
  0x74, 0xd4, 0xff, 0xff, 0x00, 0x00, 0x0e, 0x00, 0x1a, 0x00, 0x08, 0x00,
  0x0c, 0x00, 0x10, 0x00, 0x07, 0x00, 0x14, 0x00, 0x0e, 0x00, 0x00, 0x00,
  0x00, 0x00, 0x00, 0x05, 0x01, 0x00, 0x00, 0x00, 0x3c, 0x00, 0x00, 0x00,
  0x30, 0x00, 0x00, 0x00, 0x14, 0x00, 0x00, 0x00, 0x00, 0x00, 0x0e, 0x00,
  0x18, 0x00, 0x17, 0x00, 0x10, 0x00, 0x0c, 0x00, 0x08, 0x00, 0x04, 0x00,
  0x0e, 0x00, 0x00, 0x00, 0x03, 0x00, 0x00, 0x00, 0x03, 0x00, 0x00, 0x00,
  0x03, 0x00, 0x00, 0x00, 0x03, 0x00, 0x00, 0x00, 0x00, 0x00, 0x00, 0x01,
  0x01, 0x00, 0x00, 0x00, 0x0b, 0x00, 0x00, 0x00, 0x01, 0x00, 0x00, 0x00,
  0x0a, 0x00, 0x00, 0x00, 0x46, 0xff, 0xff, 0xff, 0x00, 0x00, 0x00, 0x11,
  0x01, 0x00, 0x00, 0x00, 0xda, 0xd4, 0xff, 0xff, 0x10, 0x00, 0x00, 0x00,
  0x0c, 0x00, 0x00, 0x00, 0x1c, 0x00, 0x00, 0x00, 0x40, 0x00, 0x00, 0x00,
  0x04, 0x00, 0x00, 0x00, 0x01, 0x00, 0x00, 0x00, 0x15, 0x00, 0x00, 0x00,
  0x01, 0x00, 0x00, 0x00, 0x08, 0x00, 0x00, 0x00, 0x20, 0x00, 0x00, 0x00,
  0x73, 0x65, 0x71, 0x75, 0x65, 0x6e, 0x74, 0x69, 0x61, 0x6c, 0x2f, 0x6d,
  0x61, 0x78, 0x5f, 0x70, 0x6f, 0x6f, 0x6c, 0x69, 0x6e, 0x67, 0x32, 0x64,
  0x2f, 0x4d, 0x61, 0x78, 0x50, 0x6f, 0x6f, 0x6c, 0x00, 0x00, 0x00, 0x00,
  0x34, 0xd5, 0xff, 0xff, 0x00, 0x00, 0x0e, 0x00, 0x14, 0x00, 0x00, 0x00,
  0x08, 0x00, 0x0c, 0x00, 0x07, 0x00, 0x10, 0x00, 0x0e, 0x00, 0x00, 0x00,
  0x00, 0x00, 0x00, 0x01, 0x30, 0x00, 0x00, 0x00, 0x24, 0x00, 0x00, 0x00,
  0x10, 0x00, 0x00, 0x00, 0x0c, 0x00, 0x10, 0x00, 0x00, 0x00, 0x04, 0x00,
  0x08, 0x00, 0x0f, 0x00, 0x0c, 0x00, 0x00, 0x00, 0x01, 0x00, 0x00, 0x00,
  0x01, 0x00, 0x00, 0x00, 0x00, 0x00, 0x00, 0x01, 0x01, 0x00, 0x00, 0x00,
  0x0a, 0x00, 0x00, 0x00, 0x03, 0x00, 0x00, 0x00, 0x00, 0x00, 0x00, 0x00,
  0x06, 0x00, 0x00, 0x00, 0x08, 0x00, 0x00, 0x00, 0x00, 0x00, 0x0a, 0x00,
  0x0c, 0x00, 0x07, 0x00, 0x00, 0x00, 0x08, 0x00, 0x0a, 0x00, 0x00, 0x00,
  0x00, 0x00, 0x00, 0x03, 0x01, 0x00, 0x00, 0x00, 0x9e, 0xd5, 0xff, 0xff,
  0x10, 0x00, 0x00, 0x00, 0x0b, 0x00, 0x00, 0x00, 0x1c, 0x00, 0x00, 0x00,
  0x28, 0x00, 0x00, 0x00, 0x04, 0x00, 0x00, 0x00, 0x01, 0x00, 0x00, 0x00,
  0x40, 0x00, 0x00, 0x00, 0x03, 0x00, 0x00, 0x00, 0x08, 0x00, 0x00, 0x00,
  0x0b, 0x00, 0x00, 0x00, 0x74, 0x66, 0x6c, 0x2e, 0x63, 0x6f, 0x6e, 0x76,
  0x5f, 0x32, 0x64, 0x00, 0x88, 0xd5, 0xff, 0xff, 0x7e, 0xd6, 0xff, 0xff,
  0x04, 0x00, 0x00, 0x00, 0x40, 0x00, 0x00, 0x00, 0x08, 0x66, 0x9b, 0xbf,
  0x1f, 0x40, 0x97, 0x3e, 0xc9, 0xf8, 0xac, 0xc0, 0x06, 0xc7, 0xc1, 0x3f,
  0xd0, 0x9d, 0xdb, 0xbf, 0xc1, 0x04, 0x91, 0xbd, 0xde, 0xf9, 0xd1, 0xbd,
  0x11, 0xdd, 0x2f, 0x3f, 0x59, 0xc6, 0x8f, 0xbf, 0xfd, 0x43, 0x2b, 0x40,
  0x43, 0x21, 0x59, 0xbf, 0x30, 0xc9, 0x37, 0xc0, 0xb1, 0x2d, 0xd1, 0xbf,
  0xdc, 0x22, 0x3a, 0x40, 0x0b, 0xcb, 0x95, 0x3b, 0xee, 0x13, 0xfb, 0x3e,
  0x26, 0xd6, 0xff, 0xff, 0x10, 0x00, 0x00, 0x00, 0x0a, 0x00, 0x00, 0x00,
  0x10, 0x00, 0x00, 0x00, 0x20, 0x00, 0x00, 0x00, 0x01, 0x00, 0x00, 0x00,
  0x10, 0x00, 0x00, 0x00, 0x0d, 0x00, 0x00, 0x00, 0x73, 0x74, 0x64, 0x2e,
  0x63, 0x6f, 0x6e, 0x73, 0x74, 0x61, 0x6e, 0x74, 0x31, 0x00, 0x00, 0x00,
  0x08, 0xd6, 0xff, 0xff, 0xfe, 0xd6, 0xff, 0xff, 0x04, 0x00, 0x00, 0x00,
  0x20, 0x00, 0x00, 0x00, 0x23, 0x39, 0x02, 0xbf, 0xa3, 0xc2, 0x72, 0xc0,
  0xb6, 0xb9, 0x68, 0xbf, 0xf2, 0x4a, 0xcc, 0xbc, 0x9d, 0x80, 0xef, 0xbf,
  0xa8, 0xcb, 0x85, 0xc0, 0xda, 0x87, 0x01, 0xbf, 0xf7, 0xb0, 0x71, 0xc0,
  0x86, 0xd6, 0xff, 0xff, 0x10, 0x00, 0x00, 0x00, 0x09, 0x00, 0x00, 0x00,
  0x10, 0x00, 0x00, 0x00, 0x20, 0x00, 0x00, 0x00, 0x01, 0x00, 0x00, 0x00,
  0x08, 0x00, 0x00, 0x00, 0x0c, 0x00, 0x00, 0x00, 0x73, 0x74, 0x64, 0x2e,
  0x63, 0x6f, 0x6e, 0x73, 0x74, 0x61, 0x6e, 0x74, 0x00, 0x00, 0x00, 0x00,
  0x68, 0xd6, 0xff, 0xff, 0x5e, 0xd7, 0xff, 0xff, 0x04, 0x00, 0x00, 0x00,
  0x00, 0x08, 0x00, 0x00, 0x64, 0xec, 0xe2, 0x3c, 0x05, 0xd3, 0x44, 0x3d,
  0xe3, 0x54, 0x80, 0xbf, 0x77, 0xb6, 0xb3, 0xbe, 0x7c, 0xf2, 0x0c, 0xbf,
  0x0e, 0xc4, 0x2d, 0xbf, 0xdd, 0x66, 0xc5, 0xbe, 0xdd, 0xc6, 0x3b, 0xbf,
  0x34, 0x0a, 0x96, 0xbd, 0xe6, 0x14, 0x03, 0xbe, 0x49, 0x0a, 0x95, 0x3e,
  0x0a, 0x3a, 0x4e, 0x3e, 0x70, 0x47, 0xcc, 0x3d, 0x30, 0x3c, 0xa2, 0xbd,
  0xb3, 0x11, 0x19, 0xbe, 0x77, 0x5e, 0x1b, 0xbe, 0x14, 0x57, 0x1d, 0xbd,
  0x3a, 0x78, 0x24, 0x3d, 0xb3, 0x52, 0xe4, 0x3d, 0x13, 0x30, 0xf6, 0x3e,
  0xc0, 0x52, 0x23, 0x3e, 0x5d, 0xa3, 0x30, 0x3c, 0x9f, 0x86, 0xa6, 0xbd,
  0x33, 0xcf, 0x2d, 0xbc, 0x79, 0x43, 0x8c, 0xbd, 0x28, 0xa0, 0x1d, 0xbd,
  0x90, 0xa4, 0xef, 0x3d, 0xbb, 0xba, 0x4d, 0x3e, 0xc9, 0x3d, 0xd3, 0x3d,
  0x08, 0x67, 0x58, 0x3e, 0x29, 0x4f, 0xc2, 0x3c, 0x98, 0x9b, 0x92, 0x3c,
  0x27, 0xa3, 0xf8, 0x3b, 0x7e, 0x8b, 0xa3, 0x3d, 0x60, 0x06, 0x30, 0x3e,
  0x16, 0x89, 0x18, 0x3e, 0xb7, 0xea, 0xa9, 0xbc, 0x83, 0x1c, 0xd6, 0xbe,
  0x28, 0xef, 0x06, 0x3e, 0xd5, 0xa5, 0x3f, 0x3d, 0x3d, 0x83, 0x43, 0xbc,
  0x3c, 0x82, 0x8c, 0x3d, 0x50, 0x53, 0x83, 0x3e, 0xb2, 0xd4, 0xad, 0x3c,
  0x8f, 0xe5, 0xa8, 0x3e, 0x8c, 0xa4, 0x9e, 0xbf, 0xc6, 0x1d, 0x85, 0xbe,
  0xa2, 0x5a, 0xad, 0x3d, 0x8f, 0x78, 0x3b, 0x3c, 0x53, 0x32, 0x6a, 0xbd,
  0x5b, 0x3d, 0x60, 0xbc, 0x33, 0x33, 0x63, 0xbf, 0x50, 0x63, 0x92, 0xbf,
  0x38, 0x3d, 0x6d, 0x3d, 0x0a, 0x00, 0xb4, 0xbe, 0xb1, 0xfa, 0xd8, 0xbf,
  0x88, 0x99, 0x32, 0x3c, 0x39, 0x61, 0x17, 0x3b, 0xd9, 0xdf, 0xd2, 0xbe,
  0x6b, 0x78, 0xb0, 0xbf, 0x78, 0x33, 0x8b, 0xbf, 0x96, 0x42, 0x87, 0xbd,
  0x2b, 0x24, 0xc5, 0x3d, 0xa0, 0x75, 0x76, 0xbf, 0xf0, 0x54, 0x1d, 0xbf,
  0x33, 0xf9, 0x63, 0x3d, 0xf4, 0xe4, 0x03, 0x3f, 0xa7, 0x08, 0x29, 0x3d,
  0xe9, 0x86, 0xc5, 0x3e, 0xdf, 0x38, 0x17, 0xbe, 0x73, 0x3c, 0xb8, 0xbe,
  0x6a, 0xe8, 0xf9, 0xbd, 0xd2, 0x8a, 0x1d, 0xbf, 0x66, 0x86, 0x97, 0x3c,
  0x70, 0x6c, 0xab, 0x3e, 0x79, 0xa6, 0xcf, 0x3d, 0xce, 0x4f, 0xa9, 0x3c,
  0x73, 0x0f, 0xea, 0x3d, 0x6f, 0x3b, 0x23, 0xbe, 0xd5, 0x08, 0x10, 0x3e,
  0xea, 0xb5, 0x17, 0xbf, 0xda, 0xe1, 0xc2, 0xbd, 0x2d, 0xb3, 0x82, 0x3f,
  0xb8, 0x9d, 0xb6, 0xbd, 0x4e, 0xa4, 0xaf, 0xbd, 0x5b, 0xbc, 0x16, 0x3e,
  0xf0, 0xcc, 0x8c, 0xbd, 0x0c, 0x12, 0x2c, 0x3e, 0xae, 0xb7, 0x14, 0xbf,
  0xa7, 0x43, 0x12, 0x3f, 0xc6, 0x40, 0x92, 0xbe, 0x2a, 0x08, 0x78, 0xbe,
  0xca, 0x9a, 0x04, 0xbe, 0xcf, 0x57, 0x6a, 0xbe, 0xcf, 0xef, 0x87, 0xbd,
  0xec, 0x71, 0xe1, 0x3c, 0xb6, 0xde, 0x83, 0x3d, 0xd8, 0x17, 0xd8, 0x3d,
  0x85, 0xba, 0x64, 0x3d, 0x19, 0x60, 0xfc, 0xbf, 0x1f, 0xd3, 0xed, 0xbe,
  0x56, 0xe7, 0x69, 0x3e, 0x0a, 0x0e, 0xf6, 0xbe, 0xc3, 0x19, 0xd5, 0xbf,
  0x9a, 0xfe, 0xe8, 0xbc, 0x63, 0x0f, 0x22, 0xbe, 0x07, 0x7b, 0x20, 0xbf,
  0xc1, 0xf6, 0xaf, 0xbf, 0x52, 0x5b, 0x0b, 0xc0, 0x78, 0x1a, 0x88, 0x3e,
  0x45, 0xf7, 0x8d, 0x3e, 0x41, 0x9f, 0x11, 0xbe, 0x07, 0x44, 0x70, 0x3c,
  0x52, 0xc0, 0x9f, 0xbe, 0xb7, 0x6a, 0xa9, 0xbe, 0xed, 0xac, 0x08, 0x3e,
  0x37, 0x7c, 0x1a, 0xbd, 0x5e, 0xee, 0x63, 0xbc, 0x43, 0xe5, 0xce, 0x3d,
  0x34, 0xe7, 0x0c, 0xbd, 0x95, 0x31, 0x7e, 0xba, 0xc6, 0xe6, 0xaf, 0xbe,
  0x2a, 0xa5, 0xa9, 0xbe, 0x47, 0x63, 0xeb, 0x3e, 0x7e, 0x30, 0xf8, 0xbd,
  0x39, 0xf6, 0xf5, 0xbc, 0x70, 0xa6, 0xb1, 0x3c, 0x02, 0xd7, 0xba, 0xbd,
  0xe7, 0xe0, 0x3d, 0xbd, 0x4b, 0xb5, 0xb8, 0xbd, 0x07, 0x3d, 0x16, 0xbc,
  0x7f, 0xd2, 0x14, 0x3e, 0xdc, 0xfc, 0x93, 0x3c, 0x20, 0x2a, 0xa2, 0x3e,
  0x93, 0xae, 0x59, 0x3e, 0xdb, 0xe2, 0xda, 0x3e, 0x29, 0xce, 0x99, 0xbd,
  0xab, 0x6d, 0x2e, 0xbd, 0x29, 0x70, 0xbc, 0x3d, 0xa8, 0xb6, 0xad, 0xbc,
  0x34, 0x18, 0xcb, 0xbd, 0xcd, 0xc4, 0x28, 0x3e, 0x72, 0x5e, 0x5d, 0x3d,
  0xb1, 0x35, 0x56, 0xbd, 0xab, 0xa3, 0x25, 0xbd, 0x8b, 0xdb, 0x14, 0x3a,
  0xe0, 0xcc, 0xf3, 0x3d, 0x4d, 0x5a, 0x83, 0xbe, 0xd2, 0xf2, 0x73, 0xbe,
  0x39, 0x88, 0x67, 0xbe, 0x91, 0x78, 0xcd, 0x3d, 0x2f, 0x25, 0x4c, 0x3d,
  0xa9, 0x0c, 0xd8, 0xbb, 0xa7, 0xdd, 0x23, 0x3e, 0xfd, 0x5f, 0x67, 0xbd,
  0x65, 0xe5, 0xe3, 0xbe, 0xb8, 0x7b, 0x1f, 0xbf, 0x9b, 0x07, 0xa4, 0xbe,
  0x4e, 0xd7, 0x31, 0xbe, 0x16, 0x77, 0x2c, 0xbe, 0x9b, 0x4c, 0xe7, 0xbb,
  0x26, 0x63, 0x9a, 0x3e, 0xcc, 0xc5, 0x85, 0xbe, 0x7f, 0xae, 0x40, 0xbd,
  0xd0, 0xb9, 0x6a, 0x3e, 0xf6, 0x1d, 0xd8, 0xbc, 0x8f, 0x10, 0xcd, 0xbb,
  0x34, 0x87, 0x50, 0xbc, 0xd2, 0xa6, 0x90, 0xbc, 0x96, 0xdd, 0xf8, 0xbc,
  0xbc, 0xb8, 0x11, 0xbf, 0xa4, 0x3e, 0x74, 0xbd, 0x44, 0xf5, 0x7a, 0x3c,
  0xcc, 0x60, 0x3b, 0xbe, 0xd9, 0x8b, 0x0c, 0xbe, 0x24, 0x3d, 0xa3, 0xbb,
  0xd2, 0xd6, 0xd4, 0x3b, 0x7e, 0xb4, 0xab, 0xbc, 0xdc, 0xaa, 0x87, 0xbe,
  0x5b, 0xab, 0xa0, 0x39, 0x66, 0xbd, 0x0c, 0xbe, 0xcd, 0x67, 0x80, 0xbe,
  0x9a, 0x25, 0xca, 0xbd, 0x13, 0x0b, 0x75, 0xbd, 0xc4, 0x05, 0x2d, 0x3c,
  0xca, 0x17, 0x57, 0xbd, 0xf5, 0xfc, 0x7d, 0x3d, 0xed, 0xff, 0xa6, 0x3e,
  0x17, 0x1f, 0xa5, 0xbc, 0x07, 0x19, 0xa4, 0xbe, 0xd8, 0x0c, 0x2a, 0xbd,
  0xae, 0x03, 0xae, 0xbe, 0x37, 0x71, 0x14, 0x3d, 0x3a, 0x43, 0x41, 0xbc,
  0xa8, 0x6a, 0x8b, 0x3e, 0x6c, 0x00, 0x34, 0xbf, 0xf0, 0xe5, 0xa4, 0xbe,
  0x11, 0xe5, 0x91, 0x3c, 0x51, 0x51, 0xc4, 0x3e, 0x6a, 0xe4, 0x0c, 0xbe,
  0x54, 0x76, 0xd0, 0xbb, 0x06, 0xca, 0x85, 0xbd, 0x63, 0xdd, 0x0d, 0xbf,
  0x20, 0xad, 0x12, 0xbf, 0x67, 0x27, 0x86, 0xbf, 0x62, 0x40, 0x1e, 0xbe,
  0x62, 0x93, 0x45, 0x3e, 0x10, 0x38, 0x92, 0xbe, 0x62, 0xdf, 0x91, 0x3c,
  0x79, 0xaf, 0x9c, 0xbc, 0x74, 0x98, 0xc6, 0x3a, 0x29, 0x8f, 0x73, 0x3e,
  0x94, 0x98, 0x01, 0xbe, 0x26, 0x23, 0x29, 0xbe, 0xbe, 0xe1, 0x87, 0xbc,
  0xfd, 0x86, 0xa1, 0xbe, 0x49, 0xd2, 0x76, 0x3c, 0xc9, 0xae, 0xdd, 0xbc,
  0xfc, 0xf6, 0x36, 0x3f, 0x2d, 0x78, 0x73, 0xbd, 0x66, 0x8c, 0xb8, 0x3e,
  0x43, 0x44, 0xb0, 0xbc, 0x0a, 0x07, 0x21, 0xbe, 0x4f, 0x94, 0x4e, 0xbe,
  0xcb, 0xae, 0x22, 0xbc, 0x9e, 0x67, 0xfa, 0xbe, 0xed, 0x93, 0x27, 0xbf,
  0xb1, 0xc7, 0x84, 0xbe, 0x36, 0x57, 0xae, 0xbe, 0x79, 0xad, 0x13, 0x3e,
  0x2f, 0x06, 0x79, 0x3d, 0xb4, 0xad, 0xe3, 0xbc, 0x53, 0xf8, 0x2c, 0xbb,
  0xbe, 0x37, 0x17, 0xbf, 0x97, 0x16, 0x5d, 0xbf, 0x1e, 0xca, 0x43, 0xbe,
  0xc2, 0x6c, 0x63, 0xbe, 0x8b, 0xdf, 0x46, 0xbd, 0x29, 0x94, 0xdf, 0xbc,
  0x58, 0xf4, 0x4b, 0x3c, 0x0e, 0x96, 0xb9, 0xbc, 0x09, 0x1f, 0xd6, 0xbe,
  0xb6, 0xf3, 0x81, 0xbe, 0x00, 0xf2, 0x8a, 0xbd, 0xd0, 0xb2, 0xa6, 0xbd,
  0x28, 0x56, 0x3b, 0x3d, 0xa6, 0xa0, 0x6c, 0xbc, 0xe9, 0xf2, 0x65, 0xbc,
  0x96, 0xf5, 0x96, 0xbb, 0x5b, 0xa0, 0x45, 0xbc, 0xb5, 0x6a, 0x4d, 0xbb,
  0x46, 0xa0, 0x04, 0x3f, 0xe9, 0x09, 0xaf, 0x3e, 0x0c, 0x5d, 0xf8, 0x3e,
  0x72, 0x16, 0x76, 0x3e, 0xe4, 0xba, 0xc9, 0x3c, 0x2f, 0x45, 0x89, 0xbd,
  0x0a, 0x2d, 0x91, 0xbd, 0xc9, 0xef, 0x14, 0xbf, 0x30, 0x2c, 0x39, 0xbe,
  0x18, 0xe2, 0xf2, 0xbd, 0x11, 0x93, 0x7c, 0xbe, 0xe9, 0x97, 0x39, 0xbd,
  0xd0, 0x05, 0xe6, 0x3d, 0x6d, 0xe1, 0x46, 0xbd, 0xce, 0xac, 0x4d, 0xbe,
  0xc4, 0x1b, 0x89, 0xbe, 0x3f, 0x7f, 0x09, 0x3d, 0xdf, 0xdd, 0x4c, 0x3e,
  0x37, 0x63, 0xe5, 0x3c, 0x93, 0xf9, 0xa9, 0xbc, 0x44, 0xc4, 0xe2, 0x3e,
  0xca, 0x06, 0xd7, 0xbd, 0x02, 0xb8, 0x5b, 0xbe, 0xbd, 0x5b, 0x00, 0xbf,
  0xf1, 0x29, 0xb9, 0xbd, 0x2a, 0xa6, 0x02, 0x3e, 0xe0, 0x1e, 0xb2, 0x3d,
  0x38, 0x70, 0x90, 0x3e, 0x07, 0xb9, 0xec, 0xbd, 0x92, 0x60, 0xd6, 0xbc,
  0x6d, 0x9b, 0xbf, 0xbe, 0x23, 0x93, 0xfb, 0xbe, 0x41, 0xfb, 0x22, 0xbd,
  0x78, 0xdb, 0x47, 0x3e, 0x0a, 0x6b, 0x38, 0xbe, 0x4e, 0x19, 0x9c, 0x3d,
  0x70, 0xf5, 0x27, 0x3e, 0x2e, 0x9c, 0x08, 0xbf, 0xbf, 0x36, 0xc8, 0xbb,
  0xec, 0x85, 0x2a, 0x3e, 0xf6, 0xc9, 0x0b, 0xbe, 0x43, 0x0c, 0x39, 0x3d,
  0x5e, 0xd0, 0xf3, 0xbd, 0x78, 0x9a, 0x87, 0xbe, 0xd7, 0x31, 0x12, 0xbd,
  0x22, 0x01, 0x78, 0xbe, 0xbf, 0x73, 0xb5, 0xbd, 0xec, 0x30, 0x13, 0xbe,
  0x68, 0x0b, 0x08, 0x3e, 0xa9, 0x3c, 0x80, 0xbe, 0x8b, 0x67, 0x75, 0xbe,
  0x0e, 0xb8, 0x5c, 0x3e, 0xf9, 0xe3, 0x8e, 0xbe, 0xad, 0x17, 0x81, 0xbe,
  0xa5, 0x7b, 0x03, 0x3c, 0xa0, 0xe0, 0x23, 0xbe, 0x8d, 0xc2, 0xef, 0x3b,
  0x90, 0x7d, 0x65, 0xbe, 0x34, 0x95, 0x97, 0xbe, 0x15, 0x07, 0xfb, 0xbe,
  0xf0, 0x6e, 0xbc, 0xbe, 0xe5, 0x64, 0xf5, 0xbe, 0x33, 0x49, 0x22, 0xbe,
  0x07, 0x6b, 0xc6, 0xbd, 0xd0, 0x38, 0x2e, 0x3e, 0xbb, 0x59, 0xb2, 0xbd,
  0xd1, 0x49, 0x0a, 0xbe, 0xba, 0x31, 0x8f, 0xbe, 0x7d, 0xf0, 0x00, 0x3c,
  0xf5, 0x39, 0xd7, 0xbc, 0x72, 0x57, 0x6d, 0xbc, 0x50, 0xa3, 0x1d, 0x3f,
  0x4f, 0xb1, 0x57, 0xbe, 0xd7, 0x54, 0xb6, 0x3d, 0xe5, 0x45, 0x2e, 0xbe,
  0xdf, 0x2c, 0x62, 0xbe, 0x70, 0xca, 0x7f, 0xbe, 0x1d, 0x11, 0xd2, 0xbd,
  0xf5, 0x2f, 0xed, 0xbe, 0x7f, 0xdb, 0x8f, 0x3c, 0x3e, 0x82, 0xb1, 0xbe,
  0xd9, 0x4e, 0xfe, 0xbe, 0xc0, 0x62, 0xbc, 0x3e, 0x6e, 0xb4, 0x18, 0xbe,
  0x4f, 0xf6, 0x2e, 0xbe, 0x0c, 0x7d, 0x3f, 0xbd, 0x85, 0xc4, 0x41, 0xbf,
  0x63, 0x4f, 0x0c, 0xbf, 0x28, 0x6f, 0xa6, 0xbc, 0xde, 0x51, 0x0d, 0xbe,
  0xca, 0x9c, 0x03, 0x3e, 0x8f, 0x9e, 0xca, 0x3e, 0x3f, 0xa3, 0x9c, 0x3e,
  0x28, 0xd2, 0xab, 0xbc, 0x68, 0x6c, 0x87, 0xbe, 0x5c, 0x13, 0xa5, 0x3d,
  0xe8, 0x62, 0xbf, 0x3d, 0x8d, 0xb0, 0x14, 0x3e, 0xc2, 0x52, 0xfb, 0xbd,
  0xb7, 0x12, 0xc6, 0x3d, 0x31, 0xe5, 0x0a, 0xbd, 0x34, 0x7d, 0xfe, 0xbd,
  0x8b, 0xaf, 0x9c, 0x3e, 0xad, 0xc2, 0x82, 0x3e, 0x4c, 0xdd, 0xc4, 0xbd,
  0x0f, 0x3b, 0x9e, 0xbc, 0x00, 0x32, 0xb7, 0xbf, 0x92, 0x24, 0x9d, 0xbf,
  0xea, 0xe5, 0xb2, 0xbd, 0x9e, 0xda, 0x34, 0xbe, 0x80, 0xe0, 0x94, 0x3e,
  0xb4, 0x2e, 0x18, 0xbe, 0xaf, 0xe9, 0x9e, 0xbd, 0x0c, 0x9b, 0x6f, 0xbd,
  0x0a, 0x8f, 0xba, 0xbe, 0x56, 0x1d, 0x5e, 0xbf, 0x9e, 0xd3, 0x8e, 0xbe,
  0xc8, 0xfe, 0x9f, 0xbe, 0x5d, 0x73, 0x65, 0xbe, 0x1d, 0x4c, 0x84, 0x3e,
  0x39, 0xaf, 0xe9, 0x3e, 0x75, 0x24, 0x8e, 0x3e, 0x96, 0x1a, 0x2c, 0x3d,
  0xd8, 0x50, 0xdc, 0xbe, 0xce, 0xbb, 0xb1, 0x3e, 0x37, 0x31, 0x91, 0xbe,
  0x0c, 0xea, 0xdc, 0xbe, 0x17, 0xb5, 0xbf, 0x3e, 0xcb, 0x34, 0x40, 0x3d,
  0xb9, 0x3d, 0x51, 0x3d, 0xe9, 0x58, 0x18, 0x3f, 0xd2, 0xac, 0xb8, 0xbd,
  0xeb, 0x46, 0x72, 0x3e, 0x14, 0xe5, 0x10, 0xbd, 0x60, 0x03, 0x20, 0x3d,
  0x68, 0x88, 0x1b, 0x3e, 0x1e, 0x23, 0x00, 0x3f, 0x95, 0x46, 0xb8, 0x3e,
  0x37, 0x96, 0x25, 0xbf, 0x3f, 0x17, 0x45, 0xbe, 0xd8, 0x02, 0xb8, 0xbe,
  0x6d, 0x75, 0xeb, 0xbd, 0xde, 0x1a, 0x19, 0x3e, 0xa2, 0x5a, 0x03, 0x3e,
  0xcb, 0xe8, 0x32, 0xbe, 0x56, 0x6c, 0x10, 0xbe, 0x5a, 0x70, 0x38, 0x3c,
  0x67, 0x89, 0x08, 0xbf, 0xb1, 0x5c, 0xb1, 0xbe, 0x81, 0x88, 0x09, 0xbe,
  0xb4, 0x6a, 0x99, 0x3c, 0x64, 0xaf, 0x78, 0x3d, 0xed, 0xf0, 0x35, 0xbe,
  0x59, 0xca, 0xda, 0xbe, 0xc2, 0x58, 0x90, 0x3e, 0xa8, 0xda, 0x1a, 0x3e,
  0xca, 0xc3, 0xfb, 0xbd, 0x94, 0x7a, 0x91, 0xbd, 0x4f, 0xd3, 0x3b, 0xbe,
  0x43, 0x6d, 0x54, 0xbe, 0x36, 0x87, 0xdc, 0xbd, 0x32, 0x12, 0xb3, 0xbd,
  0x8b, 0x52, 0x8e, 0x3e, 0x97, 0x17, 0x07, 0x3e, 0x41, 0x6e, 0xe9, 0x3e,
  0x6e, 0x79, 0xce, 0xbe, 0xb5, 0xb0, 0x09, 0xbf, 0x79, 0xb8, 0x9c, 0xbe,
  0x25, 0x8f, 0xf2, 0x3b, 0xfb, 0xe6, 0xde, 0xba, 0x4c, 0xe7, 0x6a, 0xbe,
  0xa8, 0xde, 0x17, 0xbf, 0x9d, 0x2c, 0xe2, 0xbc, 0xb7, 0x9f, 0x62, 0xbd,
  0x81, 0xeb, 0x66, 0xba, 0xc2, 0xec, 0xbe, 0xbd, 0x3b, 0x1a, 0xac, 0xbd,
  0x22, 0x9a, 0x04, 0x3e, 0xd8, 0x1a, 0x74, 0xbd, 0x43, 0x9d, 0x15, 0x3e,
  0x22, 0x7e, 0xd0, 0xbc, 0x4d, 0xca, 0x72, 0xbd, 0x1d, 0x97, 0x90, 0xbc,
  0x10, 0x5b, 0x0d, 0x3e, 0xee, 0x81, 0x8c, 0xbd, 0x00, 0xdb, 0x96, 0x3d,
  0x97, 0x32, 0x9e, 0xbe, 0xdf, 0xb7, 0x3c, 0xbd, 0x03, 0x82, 0x92, 0xbe,
  0x66, 0x27, 0x42, 0xbd, 0x8d, 0x9c, 0xc8, 0xbd, 0x38, 0x01, 0xae, 0x3d,
  0x7e, 0xb1, 0x11, 0xbf, 0xf6, 0xf9, 0x33, 0xbf, 0x0c, 0xfa, 0xe9, 0x3e,
  0xd7, 0x97, 0xbf, 0xbc, 0x22, 0x5e, 0xac, 0xbe, 0xef, 0x4a, 0x14, 0x3c,
  0x25, 0xf1, 0x80, 0xbd, 0xe0, 0x71, 0xb8, 0xbd, 0x02, 0x56, 0x40, 0x3f,
  0xdc, 0xe4, 0xb3, 0x3e, 0x9f, 0x58, 0xd4, 0xbe, 0x22, 0x8e, 0x94, 0xbe,
  0x5f, 0x11, 0x48, 0xbe, 0xc6, 0xde, 0x1b, 0x3c, 0x7b, 0x7c, 0x87, 0xbd,
  0x60, 0xe6, 0xc1, 0x3d, 0x9d, 0xa1, 0x61, 0x3c, 0x8a, 0x65, 0xd6, 0xbd,
  0x73, 0x2a, 0x30, 0x3e, 0x8d, 0x20, 0x9b, 0xbe, 0xa2, 0x56, 0xae, 0xbe,
  0xd7, 0xec, 0x00, 0xbc, 0xa2, 0x5a, 0x5f, 0x3d, 0x4c, 0xe3, 0x04, 0x3f,
  0x0b, 0xec, 0x13, 0xbe, 0x08, 0xe4, 0xa8, 0xbe, 0xba, 0x71, 0x85, 0x3e,
  0x8b, 0xae, 0x6d, 0xbe, 0x76, 0xc1, 0xfd, 0xbe, 0xc8, 0x99, 0x0a, 0xbd,
  0xdf, 0xb3, 0x04, 0x3e, 0x36, 0x6f, 0xa4, 0x3e, 0xa9, 0xe3, 0xa4, 0xbe,
  0x8e, 0x45, 0x09, 0xbf, 0x3a, 0x3c, 0x4b, 0x3e, 0x68, 0x97, 0x6b, 0xbe,
  0x7d, 0x2d, 0x82, 0xbe, 0x8b, 0x42, 0x17, 0xbd, 0x77, 0x86, 0xb2, 0x3d,
  0xaf, 0xdf, 0xb0, 0x3d, 0xb1, 0xe1, 0x91, 0xbf, 0x9b, 0xa2, 0xbf, 0xbe,
  0xe2, 0xa7, 0xab, 0xbe, 0x91, 0x2e, 0x9a, 0xbf, 0xd0, 0xf5, 0x08, 0xc0,
  0x07, 0x1a, 0xf0, 0xbc, 0x1a, 0x75, 0xc5, 0xbc, 0x4d, 0xaf, 0x43, 0x3f,
  0xed, 0x9e, 0x50, 0xbf, 0x1b, 0xbf, 0xcd, 0xbe, 0x0d, 0xff, 0x93, 0x3e,
  0xa1, 0x07, 0x47, 0x3d, 0xa6, 0x35, 0x1d, 0x3d, 0x1e, 0x2d, 0xb1, 0xbc,
  0x23, 0xce, 0xeb, 0xbb, 0xfc, 0xee, 0xaa, 0xbe, 0xf7, 0x4a, 0x34, 0xbf,
  0x27, 0xb9, 0x31, 0xbf, 0xdd, 0x29, 0x4a, 0xbe, 0x7e, 0x94, 0x07, 0xbc,
  0x3c, 0x6a, 0x2a, 0x3e, 0x2d, 0xd2, 0x26, 0xbd, 0x19, 0x98, 0x53, 0xbd,
  0x79, 0x86, 0x67, 0xbf, 0x1c, 0xc0, 0xd8, 0xbd, 0x1c, 0xc4, 0x4d, 0xbe,
  0x60, 0xce, 0x12, 0x3f, 0x02, 0x10, 0xa2, 0x3e, 0xbe, 0x44, 0x2f, 0x3e,
  0xc6, 0xde, 0xff, 0xff, 0x10, 0x00, 0x00, 0x00, 0x08, 0x00, 0x00, 0x00,
  0x1c, 0x00, 0x00, 0x00, 0x38, 0x00, 0x00, 0x00, 0x04, 0x00, 0x00, 0x00,
  0x10, 0x00, 0x00, 0x00, 0x04, 0x00, 0x00, 0x00, 0x01, 0x00, 0x00, 0x00,
  0x08, 0x00, 0x00, 0x00, 0x1a, 0x00, 0x00, 0x00, 0x73, 0x65, 0x71, 0x75,
  0x65, 0x6e, 0x74, 0x69, 0x61, 0x6c, 0x2f, 0x63, 0x6f, 0x6e, 0x76, 0x32,
  0x64, 0x5f, 0x31, 0x2f, 0x43, 0x6f, 0x6e, 0x76, 0x32, 0x44, 0x00, 0x00,
  0xc0, 0xde, 0xff, 0xff, 0xb6, 0xdf, 0xff, 0xff, 0x04, 0x00, 0x00, 0x00,
  0x80, 0x01, 0x00, 0x00, 0x7f, 0x8c, 0x23, 0xbe, 0x4e, 0xb2, 0x80, 0xbc,
  0xd4, 0x83, 0xd8, 0xbb, 0x66, 0xe7, 0xf5, 0xbd, 0x16, 0x52, 0xe6, 0xbd,
  0x27, 0x2b, 0xa3, 0xbc, 0x63, 0x5c, 0xc9, 0x3d, 0x37, 0x6c, 0xe2, 0x3d,
  0x28, 0x4e, 0x11, 0x3d, 0x6c, 0x71, 0x2d, 0x3e, 0x15, 0x1a, 0xde, 0x3d,
  0x8a, 0xba, 0x00, 0x3c, 0xce, 0x1a, 0xc0, 0x3e, 0x02, 0x08, 0x6e, 0xbe,
  0x98, 0x50, 0x14, 0xbe, 0xd5, 0x5b, 0x62, 0x3e, 0x1f, 0xa9, 0x67, 0xbd,
  0x59, 0xf3, 0xad, 0xbd, 0x72, 0x76, 0x92, 0x3e, 0x76, 0x00, 0xce, 0xbd,
  0x99, 0x73, 0x27, 0x3d, 0xf6, 0xaa, 0x46, 0x3f, 0x84, 0x4b, 0xc9, 0x3e,
  0xea, 0x30, 0xfe, 0xbc, 0xa6, 0x95, 0x02, 0xbf, 0xd1, 0x18, 0x67, 0xbe,
  0xf5, 0x94, 0x3a, 0x3e, 0x46, 0x14, 0xef, 0xbe, 0xf5, 0x9c, 0x37, 0xbf,
  0x60, 0x88, 0x05, 0x3e, 0xec, 0x35, 0x3e, 0x3f, 0xe9, 0xfc, 0x25, 0x3b,
  0xce, 0xa5, 0xbf, 0xbe, 0x02, 0xda, 0x9f, 0x3e, 0x83, 0x99, 0x31, 0x3f,
  0xb4, 0x38, 0x03, 0xbd, 0xce, 0x36, 0xc5, 0xbe, 0xef, 0x9e, 0x5d, 0xbe,
  0xc3, 0xaf, 0x11, 0x3e, 0xb8, 0xbd, 0x2f, 0xbf, 0x05, 0x83, 0x5e, 0x3e,
  0x0a, 0xea, 0x0f, 0xbd, 0x0c, 0x2a, 0xc5, 0x3e, 0x59, 0xfb, 0x19, 0xbf,
  0x39, 0xec, 0x0b, 0xbe, 0x9f, 0xf7, 0xd1, 0x3e, 0x59, 0x42, 0xb2, 0xbb,
  0x06, 0x75, 0x03, 0xbe, 0x0c, 0xee, 0xfb, 0x3c, 0xf7, 0x80, 0xc9, 0xbc,
  0x84, 0x63, 0x6e, 0xbe, 0x99, 0x58, 0xc9, 0xbe, 0xb6, 0x1d, 0xa0, 0xbe,
  0x26, 0x5e, 0xea, 0x3d, 0x15, 0x73, 0x01, 0xbf, 0x1d, 0x93, 0x74, 0xbe,
  0x81, 0x7c, 0x24, 0x3d, 0xa8, 0xcb, 0xd7, 0xbe, 0x51, 0x13, 0x1e, 0x3e,
  0x5e, 0x9a, 0xbc, 0xbd, 0x37, 0xca, 0x7f, 0x3d, 0x77, 0xa3, 0x26, 0xbd,
  0xf9, 0x53, 0xcf, 0x3e, 0xd1, 0xb9, 0xc1, 0x3c, 0x0e, 0x6d, 0xcc, 0xbd,
  0xee, 0xb2, 0x97, 0x3d, 0x93, 0xed, 0x1c, 0x3e, 0x4c, 0x1c, 0x60, 0x3c,
  0x83, 0xc2, 0x04, 0xbf, 0x20, 0xa4, 0x85, 0xbe, 0xc2, 0x2b, 0xa6, 0x3d,
  0x89, 0xf2, 0x9c, 0xbe, 0x13, 0xca, 0xde, 0xbc, 0xe3, 0x8f, 0xfa, 0x3d,
  0x8d, 0xf5, 0x56, 0xbe, 0x71, 0x3f, 0x3a, 0xbd, 0xbe, 0x06, 0x08, 0x3d,
  0x5d, 0x38, 0xe5, 0xbd, 0x94, 0x6f, 0xc1, 0xbc, 0x52, 0x2c, 0x41, 0xbe,
  0xf8, 0x72, 0x0b, 0xbf, 0x74, 0xd8, 0xed, 0x3d, 0xe4, 0x68, 0xad, 0xbc,
  0xde, 0xec, 0x7a, 0x3e, 0xf2, 0x4d, 0x44, 0xbf, 0x64, 0x9b, 0xe7, 0xbd,
  0x00, 0xf2, 0x51, 0xbd, 0x8e, 0xd2, 0x38, 0xbf, 0x6d, 0xb1, 0xf0, 0xbc,
  0x09, 0x40, 0x8a, 0xbd, 0xf1, 0x3d, 0x05, 0xbf, 0x41, 0xe5, 0xf5, 0xbc,
  0xa0, 0xae, 0x9e, 0xbc, 0x89, 0x2e, 0xaa, 0x3e, 0x3d, 0x2b, 0x12, 0xbc,
  0x1d, 0x00, 0x42, 0xbe, 0x9e, 0xe0, 0xff, 0xff, 0x10, 0x00, 0x00, 0x00,
  0x07, 0x00, 0x00, 0x00, 0x1c, 0x00, 0x00, 0x00, 0x38, 0x00, 0x00, 0x00,
  0x04, 0x00, 0x00, 0x00, 0x08, 0x00, 0x00, 0x00, 0x04, 0x00, 0x00, 0x00,
  0x03, 0x00, 0x00, 0x00, 0x01, 0x00, 0x00, 0x00, 0x18, 0x00, 0x00, 0x00,
  0x73, 0x65, 0x71, 0x75, 0x65, 0x6e, 0x74, 0x69, 0x61, 0x6c, 0x2f, 0x63,
  0x6f, 0x6e, 0x76, 0x32, 0x64, 0x2f, 0x43, 0x6f, 0x6e, 0x76, 0x32, 0x44,
  0x00, 0x00, 0x00, 0x00, 0x98, 0xe0, 0xff, 0xff, 0x8e, 0xe1, 0xff, 0xff,
  0x04, 0x00, 0x00, 0x00, 0x00, 0x01, 0x00, 0x00, 0x3b, 0x4e, 0x64, 0x3d,
  0x8d, 0xa2, 0xad, 0xbd, 0xab, 0xa2, 0xfa, 0x3c, 0xc8, 0xdf, 0x80, 0x3e,
  0x16, 0x45, 0x1b, 0x3e, 0x76, 0x3e, 0xd2, 0x3d, 0x06, 0x04, 0x61, 0x3c,
  0x45, 0x44, 0xf6, 0x3c, 0x8a, 0x74, 0xc0, 0xbc, 0xdd, 0x5b, 0x66, 0x3e,
  0xa4, 0xd8, 0xda, 0xbc, 0xdc, 0x90, 0xd1, 0xbe, 0x38, 0x52, 0xc3, 0x3e,
  0x12, 0x6b, 0x74, 0x3d, 0x67, 0xb0, 0x9f, 0x3e, 0x3a, 0x7a, 0x0f, 0x3c,
  0x70, 0x68, 0xc0, 0xbd, 0x71, 0xf7, 0x1b, 0xbd, 0xe0, 0x29, 0x22, 0x3e,
  0x3b, 0x65, 0x84, 0x3e, 0x89, 0x7f, 0x8a, 0x3e, 0x18, 0x5e, 0xa4, 0x3d,
  0x01, 0x03, 0xa1, 0x3c, 0xd8, 0x97, 0x02, 0x3e, 0xe4, 0x72, 0xc9, 0xbd,
  0x10, 0x3b, 0x9f, 0x3e, 0xc9, 0x73, 0x00, 0xbf, 0xa0, 0x06, 0x9a, 0xbe,
  0x89, 0x80, 0x8b, 0x3e, 0x45, 0xc7, 0xe8, 0x3d, 0x68, 0x01, 0x52, 0x3e,
  0x73, 0x03, 0x98, 0x3d, 0xc8, 0xb9, 0xb5, 0x3d, 0x8a, 0x46, 0x01, 0x3c,
  0x96, 0xd4, 0x24, 0xbe, 0x44, 0xe4, 0x4f, 0x3e, 0x52, 0xbd, 0xa0, 0x3d,
  0x90, 0xb4, 0x79, 0xbc, 0x46, 0x9d, 0x03, 0xbe, 0xb4, 0xea, 0xa5, 0x3c,
  0x66, 0x93, 0xcb, 0xbd, 0x14, 0xcc, 0x5e, 0x3e, 0x09, 0xe6, 0xee, 0xbe,
  0x52, 0xb5, 0xf8, 0xbe, 0x9a, 0x62, 0xd2, 0x3e, 0x53, 0xef, 0x1b, 0x3d,
  0xc2, 0x4a, 0x6d, 0x3e, 0x45, 0x5a, 0x5b, 0xbc, 0xf4, 0x2e, 0xb7, 0x3c,
  0xd7, 0x7e, 0x0a, 0xbe, 0x01, 0xfa, 0x27, 0x3e, 0x98, 0x83, 0x9f, 0x3e,
  0x11, 0x4b, 0x5e, 0x3e, 0x12, 0x20, 0x72, 0xbc, 0xca, 0xbb, 0xb9, 0xbd,
  0xaa, 0xc3, 0x36, 0x3d, 0x01, 0x98, 0xc9, 0xbd, 0xd2, 0xb7, 0xaf, 0x3e,
  0xc5, 0xfe, 0x82, 0xbe, 0xc0, 0x85, 0xb9, 0xbe, 0x57, 0x0f, 0xab, 0x3e,
  0x20, 0x03, 0x25, 0x3e, 0xcf, 0x82, 0x7f, 0x3e, 0xdb, 0x63, 0x09, 0x3e,
  0xf6, 0xe1, 0xff, 0xff, 0x10, 0x00, 0x00, 0x00, 0x06, 0x00, 0x00, 0x00,
  0x14, 0x00, 0x00, 0x00, 0x30, 0x00, 0x00, 0x00, 0x02, 0x00, 0x00, 0x00,
  0x04, 0x00, 0x00, 0x00, 0x10, 0x00, 0x00, 0x00, 0x19, 0x00, 0x00, 0x00,
  0x73, 0x65, 0x71, 0x75, 0x65, 0x6e, 0x74, 0x69, 0x61, 0x6c, 0x2f, 0x64,
  0x65, 0x6e, 0x73, 0x65, 0x5f, 0x31, 0x2f, 0x4d, 0x61, 0x74, 0x4d, 0x75,
  0x6c, 0x00, 0x00, 0x00, 0xe8, 0xe1, 0xff, 0xff, 0xde, 0xe2, 0xff, 0xff,
  0x04, 0x00, 0x00, 0x00, 0x00, 0x1c, 0x00, 0x00, 0xb7, 0x71, 0x1d, 0xbe,
  0xde, 0xca, 0x23, 0xbe, 0x1c, 0xec, 0x28, 0xbf, 0x4d, 0x90, 0x4c, 0xbe,
  0xa3, 0xc7, 0x6a, 0xbf, 0xf2, 0x10, 0x82, 0x3e, 0x26, 0x94, 0x99, 0x3e,
  0xef, 0xe3, 0xbd, 0x3d, 0x22, 0x3f, 0x8d, 0xbd, 0xc0, 0xd9, 0x33, 0x3f,
  0x02, 0x20, 0x34, 0xbd, 0xfd, 0x27, 0xcd, 0xbd, 0xe3, 0xdb, 0x6c, 0xbe,
  0x2c, 0xa5, 0xed, 0xbd, 0xab, 0xa8, 0xde, 0xbd, 0xca, 0xf1, 0xda, 0x3d,
  0xad, 0xba, 0xc9, 0xbd, 0x21, 0x44, 0xa6, 0xbc, 0xf1, 0xee, 0xd3, 0xbd,
  0xd4, 0x09, 0x0d, 0xbe, 0x14, 0x2a, 0xd8, 0xbd, 0x45, 0xca, 0xdc, 0xbd,
  0x22, 0x7e, 0x23, 0x3e, 0x08, 0x73, 0x0e, 0xbe, 0x27, 0x93, 0x28, 0xbe,
  0xbc, 0xa3, 0xb7, 0x3e, 0x95, 0x57, 0xa5, 0x3e, 0x19, 0xd0, 0x59, 0x3d,
  0xa2, 0xf0, 0x2a, 0x3e, 0x55, 0x56, 0xcb, 0x3e, 0x0e, 0x3e, 0xeb, 0x3d,
  0x71, 0x74, 0x6b, 0xbe, 0x45, 0x29, 0x00, 0xbe, 0xe9, 0x07, 0x02, 0xbe,
  0x15, 0x79, 0x3c, 0xbe, 0x92, 0xe1, 0x68, 0xbe, 0x4a, 0x4a, 0x9a, 0x3d,
  0x6b, 0x7e, 0xa0, 0xbe, 0x00, 0x16, 0xca, 0xbd, 0xe5, 0x28, 0xc1, 0xbe,
  0x08, 0x77, 0x53, 0xbe, 0xba, 0x9d, 0xe5, 0x3e, 0x05, 0xcb, 0x4e, 0x3e,
  0x3a, 0xe1, 0x7c, 0x3e, 0x15, 0xbf, 0xda, 0x3e, 0xc4, 0xb6, 0x16, 0x3d,
  0x14, 0x60, 0x4f, 0xbd, 0x58, 0x67, 0xe3, 0xbd, 0x3d, 0x1b, 0xa1, 0x3d,
  0x3a, 0x34, 0x3f, 0x3e, 0x4a, 0x6e, 0x0a, 0x3e, 0x4a, 0xb9, 0x20, 0x3e,
  0x67, 0xbf, 0x8b, 0x3d, 0x06, 0xa3, 0x2f, 0xbe, 0xf5, 0xc6, 0x0b, 0x3d,
  0x93, 0x53, 0x91, 0xbe, 0x8f, 0x9d, 0xfd, 0x3c, 0x47, 0x83, 0xc1, 0x3e,
  0x56, 0xcf, 0x52, 0x3e, 0x76, 0x2e, 0x06, 0xbd, 0x73, 0xaf, 0x87, 0x3e,
  0x1f, 0x50, 0xbf, 0x3e, 0xb5, 0x34, 0xea, 0xbd, 0xe8, 0x7c, 0x14, 0xbe,
  0x20, 0x67, 0x57, 0xbe, 0xfd, 0x9e, 0x5b, 0x3d, 0x03, 0xcd, 0x16, 0x3d,
  0x48, 0x8d, 0x21, 0xbd, 0x2f, 0x0d, 0x56, 0x3d, 0x4f, 0x18, 0x89, 0xbd,
  0xdf, 0xd2, 0xb9, 0x3e, 0x64, 0xd6, 0xca, 0xbe, 0x24, 0x45, 0xf7, 0xbc,
  0xd5, 0x3a, 0xd0, 0x3e, 0xa9, 0xcf, 0x30, 0x3d, 0xd5, 0xb6, 0x0d, 0xbf,
  0xde, 0x6d, 0x45, 0x3e, 0xed, 0xa2, 0x77, 0x3e, 0xfb, 0xfc, 0x14, 0xbe,
  0x0a, 0xb1, 0x0b, 0xbe, 0xda, 0xb9, 0x0f, 0x3d, 0x27, 0x09, 0x8b, 0xbe,
  0x5b, 0x5e, 0xc4, 0xbc, 0xff, 0xd8, 0x93, 0xbe, 0x05, 0x5f, 0x22, 0x3e,
  0x61, 0x89, 0x6e, 0xbe, 0x3b, 0xc3, 0x09, 0x3e, 0x54, 0xa9, 0xa8, 0xbe,
  0xe2, 0xf7, 0x18, 0x3e, 0x89, 0x67, 0x8f, 0x3e, 0x86, 0x8b, 0xea, 0x3c,
  0x1f, 0x1d, 0x89, 0x3d, 0xb1, 0x6f, 0xab, 0x3e, 0x01, 0x89, 0x1c, 0x3f,
  0xe2, 0x54, 0x85, 0xbe, 0xf4, 0x9b, 0x9a, 0xbc, 0xfd, 0x02, 0x9a, 0xbe,
  0x82, 0xe7, 0x9b, 0xbd, 0x0c, 0x80, 0x28, 0xbe, 0x0e, 0xb7, 0xae, 0xbe,
  0x45, 0xd7, 0xf0, 0xbc, 0xdf, 0x0b, 0xfe, 0xbd, 0x3c, 0xf6, 0x57, 0xbe,
  0x15, 0xce, 0xf9, 0xbe, 0xe7, 0x34, 0x49, 0x3d, 0x69, 0xa8, 0x4e, 0x3e,
  0x19, 0x89, 0x47, 0xbe, 0x6d, 0x4a, 0x8f, 0x3e, 0xa6, 0x15, 0x3d, 0xbe,
  0x0a, 0x32, 0xdb, 0x3e, 0x9e, 0x26, 0xd4, 0x3d, 0x14, 0xd3, 0x01, 0x3e,
  0xc3, 0x28, 0xcc, 0xbe, 0xc8, 0xc6, 0x5b, 0xbe, 0x11, 0x15, 0x54, 0xbe,
  0x08, 0xeb, 0x89, 0x3e, 0x69, 0x73, 0x0f, 0xbf, 0x99, 0x0a, 0x5b, 0xbe,
  0x6f, 0xd5, 0xaa, 0x3e, 0x7d, 0x5a, 0x0d, 0x3e, 0xd9, 0xbf, 0x3c, 0xbd,
  0x01, 0x77, 0xd9, 0x3e, 0x7a, 0x0a, 0x51, 0x3d, 0xad, 0x03, 0x86, 0xbe,
  0x01, 0x15, 0xdd, 0xbd, 0x83, 0x1d, 0x28, 0xbf, 0x7a, 0xf9, 0xa9, 0xbe,
  0x6a, 0x8c, 0xdb, 0x3d, 0x2d, 0x15, 0x2e, 0x3d, 0x64, 0x5e, 0xc7, 0xbc,
  0xed, 0x92, 0x90, 0xbe, 0x96, 0x53, 0xbf, 0xba, 0x74, 0x17, 0x9e, 0xbe,
  0x0f, 0x58, 0x6e, 0x3e, 0xe3, 0x79, 0x91, 0x3e, 0xb1, 0x5f, 0x95, 0x3e,
  0xe8, 0xa5, 0x96, 0xbd, 0x68, 0xe2, 0xc6, 0xbd, 0x8c, 0x4f, 0x01, 0x3d,
  0xbd, 0x21, 0xdb, 0xbd, 0x9f, 0x92, 0x7c, 0x3e, 0x9c, 0xac, 0x9c, 0x3e,
  0xfe, 0x49, 0xc8, 0xbd, 0x1e, 0x76, 0x05, 0x3d, 0x69, 0x74, 0xd3, 0x3c,
  0x53, 0x20, 0x42, 0xbc, 0xf2, 0x7e, 0xa2, 0xbe, 0x86, 0xc3, 0x0b, 0x3e,
  0xaa, 0x25, 0xdc, 0xbe, 0x2c, 0x25, 0x0e, 0x3f, 0x48, 0x6f, 0xa5, 0x3d,
  0x9a, 0x09, 0x82, 0xbd, 0x18, 0xc3, 0x20, 0xbe, 0x96, 0x41, 0x8d, 0xbd,
  0x65, 0x21, 0x6a, 0x3e, 0xaf, 0x39, 0x52, 0x3e, 0x94, 0x68, 0x20, 0x3e,
  0x0f, 0x1e, 0x6d, 0x3e, 0xb6, 0x07, 0xc2, 0x3d, 0x9f, 0xec, 0x3a, 0x3d,
  0xdc, 0xf0, 0x53, 0x3e, 0x73, 0xdc, 0xef, 0xbd, 0xff, 0xe2, 0x6e, 0xbe,
  0x15, 0x17, 0x8a, 0xbe, 0xc1, 0x57, 0x10, 0xbe, 0x1f, 0x9b, 0xd9, 0xbe,
  0x94, 0x85, 0xb0, 0x3e, 0x76, 0x15, 0x9e, 0xbd, 0x04, 0xb5, 0x3b, 0xbc,
  0x3d, 0x65, 0x5f, 0xbe, 0x53, 0x07, 0xa7, 0x3e, 0xcb, 0x08, 0x26, 0x3e,
  0x44, 0x11, 0x43, 0x3e, 0x61, 0x17, 0x06, 0x3f, 0x38, 0xf5, 0xe5, 0x3c,
  0xd3, 0x86, 0xe6, 0x3d, 0x99, 0xc5, 0x2f, 0xbe, 0xa0, 0x0b, 0x98, 0xbe,
  0x1f, 0x7b, 0x08, 0xbe, 0xef, 0x9a, 0x98, 0xbe, 0x86, 0x01, 0xcf, 0x3d,
  0x83, 0xd3, 0xb5, 0xbf, 0x07, 0xa9, 0x18, 0x3d, 0x37, 0x8f, 0xd8, 0xbe,
  0x31, 0xe8, 0xd2, 0x3a, 0xaa, 0x66, 0x61, 0xbd, 0x4c, 0xf9, 0x14, 0x3e,
  0x91, 0x64, 0xca, 0x3d, 0xc2, 0xfe, 0x05, 0x3e, 0xee, 0x2b, 0x6d, 0x3e,
  0x1c, 0x17, 0x84, 0xbd, 0xb8, 0x51, 0xdf, 0xbd, 0xe5, 0x74, 0x89, 0x3e,
  0x28, 0xbe, 0xc6, 0x3d, 0x0b, 0x91, 0x3e, 0xbe, 0x6d, 0xc9, 0xd4, 0xbe,
  0xc4, 0x3a, 0x08, 0x3f, 0xc8, 0xd6, 0xce, 0xbd, 0x2f, 0x06, 0x22, 0xbe,
  0x88, 0x84, 0x62, 0xbe, 0xd0, 0x84, 0x13, 0xbe, 0xd9, 0x29, 0x55, 0xbe,
  0x0f, 0x45, 0x6b, 0x3e, 0x08, 0x50, 0x41, 0xbd, 0xf9, 0x06, 0x4b, 0x3d,
  0x02, 0x02, 0xff, 0x3e, 0x04, 0x0c, 0xbe, 0xbd, 0xb5, 0x98, 0xf9, 0xbd,
  0xd0, 0x4d, 0xe8, 0xbe, 0x50, 0xb3, 0xaa, 0xbe, 0x7a, 0xa0, 0xe2, 0xbc,
  0xf5, 0x2c, 0x9f, 0xbe, 0xfa, 0x5d, 0x61, 0x3d, 0x12, 0x32, 0x82, 0x3e,
  0x3c, 0x98, 0x3d, 0xbe, 0x0b, 0x84, 0x79, 0xbe, 0xd7, 0xf3, 0x07, 0xbe,
  0x4c, 0xe8, 0x01, 0x3e, 0x34, 0xd1, 0x7c, 0x3d, 0xdf, 0xf0, 0x14, 0xbe,
  0x35, 0x40, 0xe0, 0x3d, 0x22, 0x64, 0xc0, 0xbc, 0xb2, 0x75, 0xd1, 0xbe,
  0xa3, 0x86, 0xc0, 0xbd, 0xa4, 0x9a, 0x1f, 0x3d, 0x79, 0xea, 0x3e, 0xbd,
  0xfa, 0xf1, 0x37, 0x3d, 0x1f, 0x0c, 0x67, 0x3d, 0x3c, 0x89, 0xf9, 0x3d,
  0x1c, 0x5d, 0x16, 0xbd, 0x18, 0x93, 0x4e, 0x3d, 0x1d, 0x55, 0xb2, 0x3d,
  0x5d, 0x17, 0x39, 0x3d, 0x84, 0x01, 0x3b, 0xbd, 0xcc, 0x0c, 0xe8, 0xbd,
  0x61, 0xc3, 0x87, 0x3d, 0x96, 0x94, 0x19, 0xbd, 0x84, 0x2b, 0x0b, 0xbf,
  0x46, 0xc2, 0x69, 0x3c, 0xa0, 0x58, 0x26, 0x3e, 0xb2, 0xcd, 0xa5, 0x3d,
  0x23, 0x42, 0x97, 0x3e, 0x8d, 0xce, 0x1b, 0x3e, 0x5f, 0xdc, 0x33, 0xbd,
  0x01, 0x59, 0x5f, 0xbc, 0x1e, 0x78, 0x60, 0xbd, 0xe0, 0x3e, 0xb0, 0x3d,
  0xd9, 0x35, 0x11, 0xbd, 0x8f, 0x99, 0x51, 0x3d, 0x5d, 0x8f, 0x3a, 0xbe,
  0x78, 0xd2, 0x3a, 0xbd, 0x10, 0x44, 0x59, 0x3d, 0xff, 0xce, 0x93, 0xbd,
  0xc8, 0xe4, 0x36, 0xbe, 0xdc, 0xd1, 0xe3, 0x3d, 0x20, 0x0c, 0xd1, 0x3d,
  0xe8, 0x0b, 0xcf, 0x3d, 0x51, 0xcb, 0x13, 0xbe, 0xe6, 0x19, 0x2d, 0x3e,
  0x03, 0xe2, 0x6e, 0xbd, 0xcc, 0x91, 0xb5, 0xbd, 0x51, 0x51, 0x27, 0x3d,
  0x79, 0xd4, 0x25, 0x3d, 0x4f, 0x83, 0xe1, 0xbc, 0x06, 0x92, 0x4f, 0xbc,
  0x9e, 0x47, 0x91, 0x3e, 0x1e, 0xa7, 0x5c, 0xbe, 0x53, 0xd0, 0x17, 0x3c,
  0xb8, 0xbb, 0x3c, 0xbe, 0x8d, 0x53, 0x1f, 0xbe, 0x8f, 0x7b, 0x74, 0xbd,
  0xfd, 0xf2, 0xee, 0xbe, 0x52, 0x8c, 0xb5, 0xbd, 0xad, 0x31, 0xc6, 0x3c,
  0x95, 0xfb, 0xbe, 0x3c, 0xe5, 0x4c, 0x27, 0xbe, 0xc3, 0x7a, 0xa2, 0xbd,
  0xc2, 0xcb, 0x8e, 0x3d, 0xa0, 0xf5, 0xd9, 0xbc, 0xd2, 0x06, 0x5d, 0xbe,
  0xee, 0x26, 0xd0, 0x3d, 0x8d, 0x00, 0xb4, 0x3e, 0x85, 0xc6, 0x0f, 0xbf,
  0x42, 0x0a, 0x91, 0xbe, 0xa7, 0xa0, 0x15, 0xbf, 0x30, 0xee, 0x62, 0xbd,
  0x34, 0xdf, 0x22, 0xbe, 0x03, 0x28, 0x93, 0xbf, 0x66, 0xf0, 0x13, 0xbd,
  0x3a, 0xae, 0x23, 0xbd, 0x00, 0xe2, 0xe3, 0xbd, 0x1d, 0xe2, 0x8a, 0xbe,
  0xdd, 0x21, 0x24, 0xbe, 0x6c, 0x00, 0x0d, 0x3d, 0xd4, 0x52, 0x71, 0xbc,
  0x1a, 0x66, 0x08, 0x3e, 0xf5, 0xa7, 0x36, 0xbd, 0xeb, 0xc8, 0x03, 0x3d,
  0x3f, 0xea, 0xa9, 0xbe, 0x04, 0xc5, 0x1b, 0x3e, 0xcc, 0x8a, 0xfb, 0xbe,
  0x45, 0xf2, 0xd8, 0xbd, 0xe8, 0x76, 0xd3, 0xbd, 0x7a, 0xcd, 0x0a, 0xbf,
  0x38, 0x17, 0x7a, 0xbc, 0x65, 0x3a, 0x4c, 0x3d, 0xb2, 0x82, 0xc6, 0x3d,
  0xe9, 0xcd, 0x83, 0xbd, 0x2c, 0x2e, 0xef, 0x3d, 0x68, 0x86, 0x19, 0xbe,
  0xd9, 0xb3, 0x34, 0x3d, 0x49, 0x5e, 0xf1, 0x3d, 0x38, 0xe9, 0x81, 0xbd,
  0x5b, 0x20, 0xe5, 0xbd, 0x2f, 0x8c, 0x52, 0xbe, 0xe3, 0xb6, 0x38, 0x3d,
  0xcf, 0x12, 0x30, 0xbe, 0x82, 0xe7, 0xbf, 0xbe, 0xbc, 0x4c, 0x2d, 0x3d,
  0x35, 0x61, 0xbc, 0xbd, 0x11, 0x83, 0x0c, 0x3e, 0xb5, 0x82, 0x1e, 0x3b,
  0xd1, 0x6a, 0xb3, 0x3b, 0x45, 0x57, 0x0f, 0x3e, 0x19, 0x7f, 0x79, 0x3d,
  0xef, 0x82, 0x98, 0x3d, 0xe1, 0x9e, 0x16, 0x3e, 0xac, 0xa6, 0x3d, 0x3c,
  0x44, 0x26, 0xd2, 0x3c, 0x03, 0x86, 0xce, 0xbb, 0xaa, 0xeb, 0xea, 0xbd,
  0xb0, 0xb5, 0xee, 0x3c, 0x0f, 0xdf, 0x6f, 0xbd, 0xfd, 0x4c, 0xef, 0x3e,
  0xd0, 0xe8, 0xaf, 0x3d, 0xb6, 0x09, 0x68, 0x3e, 0x81, 0x0a, 0xff, 0xbd,
  0xd8, 0x79, 0x00, 0xbf, 0xdc, 0x5d, 0xf2, 0x3d, 0xd3, 0xbf, 0x3d, 0xbf,
  0x6f, 0x66, 0xe0, 0xbd, 0x28, 0x14, 0xd7, 0xbe, 0x52, 0x75, 0x09, 0xbf,
  0xac, 0xa5, 0x02, 0x3e, 0x79, 0x0e, 0x09, 0x3e, 0x3b, 0x25, 0xe1, 0x3d,
  0x51, 0x5d, 0xb3, 0x3d, 0xb6, 0xaf, 0xc9, 0x3d, 0x36, 0xff, 0x09, 0xbe,
  0xe7, 0x7c, 0x1b, 0xbf, 0xf8, 0x1d, 0xac, 0x3c, 0xa9, 0x34, 0x5b, 0xbe,
  0x6b, 0x83, 0x3d, 0x3e, 0xc3, 0x62, 0xcf, 0xbe, 0xae, 0x9c, 0x5a, 0x3e,
  0xd0, 0xc1, 0x87, 0x3d, 0x3e, 0x8a, 0xc0, 0x3d, 0xba, 0xb8, 0x89, 0xb9,
  0x7b, 0xb7, 0xb7, 0x3e, 0xfb, 0x76, 0xfa, 0xbe, 0x73, 0x41, 0xe9, 0xbc,
  0x36, 0x61, 0xcd, 0xbb, 0xfa, 0x2f, 0xc4, 0xbe, 0x23, 0x36, 0x96, 0x3e,
  0xc6, 0x52, 0x34, 0xbe, 0xc9, 0x73, 0x9b, 0xbd, 0x79, 0x1d, 0x19, 0x3e,
  0x63, 0x31, 0x2e, 0xbf, 0xaf, 0xb0, 0x8a, 0x3e, 0xf0, 0x22, 0x37, 0xba,
  0xf7, 0x3b, 0x34, 0x3e, 0x5a, 0x72, 0xa4, 0xbf, 0x14, 0xe0, 0xaa, 0x3e,
  0xd0, 0xa7, 0x41, 0x3e, 0xef, 0x1a, 0x32, 0xbf, 0x02, 0x30, 0xf1, 0xbe,
  0x4d, 0x2d, 0x08, 0xbd, 0xc6, 0x72, 0x37, 0xbd, 0xc8, 0x8d, 0xcb, 0xbe,
  0x4c, 0x06, 0x35, 0x3e, 0xe5, 0x86, 0xc0, 0xbc, 0xca, 0x83, 0xc1, 0xbc,
  0xbd, 0xb1, 0x05, 0x3e, 0xdb, 0x6e, 0x06, 0xbe, 0xee, 0x97, 0x3c, 0x3e,
  0x9d, 0x9b, 0x0d, 0x3e, 0xca, 0x05, 0x01, 0x3b, 0x7e, 0xe9, 0xbb, 0xbe,
  0x25, 0xac, 0x27, 0x3e, 0x06, 0x69, 0xe7, 0x3e, 0x49, 0x99, 0x54, 0xbf,
  0x81, 0xe8, 0x91, 0xbe, 0xb5, 0x76, 0x81, 0x3d, 0x2f, 0x3c, 0x1e, 0x3e,
  0x6d, 0xbc, 0xa5, 0xbe, 0xcd, 0xee, 0x79, 0x3e, 0xb4, 0x6d, 0x79, 0xbe,
  0xe2, 0x71, 0xbb, 0x3d, 0xc0, 0x1c, 0x8d, 0x3c, 0x1e, 0x84, 0xc2, 0xbe,
  0xd7, 0x61, 0x8e, 0x3d, 0x6d, 0x37, 0x72, 0x3e, 0x60, 0x6a, 0x11, 0x3e,
  0x7b, 0x97, 0x90, 0xbf, 0x8c, 0x73, 0xb2, 0x3d, 0xfb, 0xe8, 0x8b, 0x3e,
  0x1e, 0x70, 0x92, 0xbe, 0xfc, 0xe7, 0x81, 0x3e, 0x75, 0xe1, 0xda, 0x3b,
  0x64, 0x99, 0xa2, 0x3d, 0xdc, 0x6e, 0x46, 0xbe, 0xd6, 0x11, 0xf4, 0x3e,
  0xf1, 0xc8, 0x52, 0xbe, 0xf0, 0x68, 0x5e, 0x3e, 0x5c, 0xb8, 0x56, 0x3e,
  0x71, 0xf7, 0x67, 0xbe, 0xa4, 0x12, 0x93, 0x3e, 0xaf, 0x7b, 0x8f, 0xbd,
  0x29, 0x21, 0x2f, 0x3e, 0x0e, 0x93, 0xd2, 0xbe, 0x0b, 0x47, 0x3d, 0xbe,
  0xcf, 0xb3, 0x0c, 0x3e, 0xe2, 0x6a, 0x42, 0x3e, 0x68, 0x7a, 0x2e, 0x3d,
  0x24, 0x84, 0xc7, 0xbc, 0x9b, 0xdc, 0xde, 0xbd, 0xb9, 0x87, 0xc9, 0xbe,
  0xb1, 0xc7, 0xa0, 0x3e, 0x9d, 0x21, 0x14, 0xbd, 0x01, 0xfd, 0x3f, 0xbe,
  0x61, 0x4d, 0xe4, 0x3d, 0x9a, 0x4a, 0x77, 0xbd, 0x95, 0xcc, 0xba, 0x3c,
  0x0d, 0x75, 0xa8, 0xbe, 0x8e, 0xcf, 0x25, 0x3e, 0x3d, 0xee, 0x09, 0xbf,
  0x69, 0x65, 0x33, 0x3d, 0x93, 0xdd, 0xb9, 0x3d, 0xaa, 0x98, 0x39, 0xbe,
  0xf9, 0xfc, 0xcb, 0xbe, 0x13, 0xb2, 0x0b, 0x3e, 0x6d, 0xba, 0x7f, 0x3e,
  0x35, 0x8b, 0xd8, 0xbe, 0x30, 0x3b, 0x5d, 0x3e, 0x40, 0x62, 0xda, 0x3d,
  0x0f, 0x12, 0x92, 0x3e, 0xd8, 0xa8, 0x97, 0xbe, 0x87, 0x8c, 0x1b, 0xbe,
  0x8e, 0x38, 0x16, 0x3d, 0x09, 0xec, 0x7a, 0xbd, 0x09, 0xe3, 0x35, 0xbd,
  0xaf, 0x48, 0x98, 0xbc, 0xf9, 0x6e, 0x1c, 0x3e, 0xfd, 0xaa, 0x63, 0xbe,
  0x4a, 0x47, 0xc9, 0xbd, 0xea, 0xa7, 0x37, 0xbe, 0x2c, 0x20, 0xdc, 0x3d,
  0xc6, 0x63, 0x15, 0x3e, 0x7e, 0xfc, 0x6e, 0x3d, 0x2b, 0x18, 0x93, 0x3c,
  0xec, 0x80, 0x29, 0xbe, 0xa1, 0x5d, 0x55, 0xbe, 0xff, 0x29, 0xe2, 0xbe,
  0x02, 0x93, 0x91, 0xbe, 0x6a, 0xf7, 0x4d, 0xbf, 0x75, 0xc6, 0xc0, 0xbc,
  0x15, 0xa4, 0x50, 0xbe, 0x83, 0xb8, 0x5a, 0xbd, 0xf0, 0x12, 0x83, 0x3e,
  0xaa, 0x0e, 0xa0, 0xbc, 0x49, 0xcb, 0xc1, 0xbe, 0xc3, 0x5a, 0xe8, 0xbd,
  0x0c, 0x43, 0x4a, 0xbd, 0x64, 0x52, 0xdf, 0xbe, 0x7d, 0x71, 0x54, 0xbd,
  0x2f, 0xc0, 0x98, 0xbe, 0xab, 0x3f, 0x45, 0xbe, 0xe2, 0x64, 0x94, 0x3e,
  0xcd, 0x73, 0xd2, 0xbd, 0xb7, 0xda, 0x35, 0xbd, 0x6d, 0xef, 0xfd, 0x3d,
  0xe4, 0x29, 0xc8, 0x3e, 0x2c, 0x1d, 0xad, 0xbd, 0xe2, 0xfd, 0xd9, 0x3d,
  0x19, 0x1e, 0x06, 0xbe, 0x82, 0x36, 0x3d, 0x3f, 0xa8, 0xe7, 0x1a, 0x3e,
  0xb1, 0x8b, 0x78, 0x3e, 0x74, 0x2d, 0xa4, 0xbd, 0x91, 0xa0, 0x20, 0xbe,
  0x67, 0xea, 0xf8, 0x3d, 0xcb, 0x4b, 0x0c, 0xbe, 0x3d, 0x1e, 0x19, 0xbe,
  0xfc, 0x42, 0x89, 0xbe, 0xcb, 0x42, 0x16, 0xbe, 0xde, 0x8f, 0x41, 0xbb,
  0x3a, 0x32, 0x56, 0x3e, 0xc3, 0x13, 0x0f, 0x3e, 0xdf, 0x6b, 0x17, 0x3c,
  0xcc, 0x0f, 0x4d, 0x3e, 0x1e, 0xea, 0x46, 0xbe, 0x69, 0x32, 0x3c, 0x3e,
  0x82, 0x30, 0xad, 0x3c, 0xe5, 0x2d, 0xfe, 0x3c, 0x61, 0x9a, 0x8f, 0xbc,
  0x60, 0x00, 0x90, 0xbe, 0x5c, 0xf6, 0xb0, 0xbc, 0x9a, 0xb8, 0x48, 0xbe,
  0x94, 0x4f, 0x91, 0xbe, 0x0a, 0x2c, 0x36, 0xbc, 0xd7, 0xcf, 0x1b, 0xbd,
  0x8a, 0x9b, 0x28, 0xbd, 0x48, 0xde, 0x13, 0x3e, 0x2c, 0xc5, 0x9b, 0x3d,
  0x19, 0x5b, 0x4e, 0xbc, 0xec, 0x24, 0x07, 0x3d, 0x80, 0xf8, 0x82, 0x3e,
  0x98, 0x8b, 0x1b, 0xbe, 0x0c, 0xc1, 0x53, 0xbe, 0x6a, 0xc2, 0xa9, 0x3d,
  0x3a, 0x29, 0x36, 0xbe, 0xa6, 0x88, 0xfc, 0xbd, 0x72, 0xd0, 0x31, 0xbe,
  0xca, 0x23, 0x70, 0xbd, 0x47, 0x3e, 0x51, 0xbe, 0x35, 0x5f, 0xb9, 0x3d,
  0x43, 0xd7, 0xe5, 0xbd, 0x68, 0x3f, 0x54, 0x3c, 0x84, 0x9d, 0x4a, 0x3e,
  0x8e, 0x25, 0xc7, 0x3c, 0x7c, 0x63, 0x42, 0xbe, 0xa9, 0x2d, 0xc5, 0x3d,
  0xf9, 0xa7, 0x4e, 0x3e, 0x9c, 0x72, 0x62, 0xbe, 0x33, 0x0e, 0x3c, 0xbe,
  0x9b, 0x11, 0x53, 0x3e, 0x51, 0x0c, 0x4e, 0xbe, 0x7f, 0xf8, 0xc2, 0xbe,
  0x61, 0x34, 0x0c, 0xbd, 0xa8, 0xe0, 0x82, 0xbe, 0x8f, 0xc7, 0x74, 0xbe,
  0x3f, 0x43, 0xc3, 0xbd, 0x89, 0x9b, 0x06, 0xbe, 0xd0, 0xdc, 0x32, 0xbd,
  0xd5, 0x9c, 0xc5, 0x3d, 0xeb, 0xa8, 0x76, 0x3d, 0x05, 0xc7, 0xb5, 0x3b,
  0x7e, 0xef, 0x6a, 0x3e, 0xba, 0xeb, 0x1d, 0xbd, 0x9a, 0xef, 0x3d, 0xbf,
  0xcf, 0x68, 0xaa, 0x3d, 0x06, 0xd8, 0x51, 0x3e, 0x0f, 0x30, 0x23, 0xbd,
  0x38, 0x7b, 0x5f, 0x3e, 0x23, 0x60, 0x28, 0x3d, 0x84, 0x44, 0x89, 0xbe,
  0x7f, 0x7f, 0xc4, 0xbd, 0xed, 0x2e, 0x0a, 0x3e, 0x43, 0xc6, 0xf3, 0xbc,
  0x22, 0xdf, 0xc8, 0xbc, 0x60, 0x90, 0x5b, 0xbd, 0x84, 0x27, 0x42, 0xbe,
  0x4b, 0x24, 0x9c, 0xbd, 0x65, 0x5c, 0x01, 0x3e, 0xe7, 0x0a, 0x5f, 0xbe,
  0xe2, 0x85, 0x5e, 0xbc, 0xd4, 0x49, 0xb1, 0xbc, 0xad, 0x29, 0xa0, 0xbd,
  0x3c, 0x1c, 0xf7, 0x3c, 0xc9, 0xc0, 0xa0, 0x3f, 0xbe, 0x27, 0x3c, 0xbf,
  0x80, 0xc0, 0x94, 0xbd, 0xdb, 0xea, 0x88, 0xbe, 0x64, 0x6e, 0x33, 0x3f,
  0x66, 0x85, 0x11, 0xbe, 0x34, 0x55, 0xef, 0xbe, 0xf1, 0x84, 0xcc, 0xbe,
  0xfa, 0x63, 0x16, 0x3f, 0xd0, 0x07, 0x80, 0xbd, 0xca, 0x74, 0x21, 0xbf,
  0x0a, 0x2e, 0x36, 0xbe, 0x48, 0x95, 0x2c, 0xbe, 0x30, 0xf9, 0x81, 0xbe,
  0x90, 0x31, 0x29, 0xbf, 0x96, 0x12, 0x27, 0xbe, 0x2e, 0xcf, 0xb8, 0x3f,
  0x4e, 0xf1, 0x3b, 0xbf, 0x96, 0x2c, 0xc9, 0xbe, 0x72, 0xb4, 0x02, 0xbf,
  0x9e, 0x9e, 0xcd, 0x3f, 0x30, 0xc2, 0x06, 0x3e, 0x3d, 0x2b, 0x39, 0xbe,
  0xc2, 0x28, 0x40, 0xbe, 0x57, 0xba, 0xfb, 0xbd, 0x48, 0xd2, 0x90, 0xbd,
  0xcd, 0xdf, 0x6f, 0xbd, 0x9f, 0x23, 0xe1, 0xbd, 0x86, 0xd4, 0xf7, 0x3d,
  0x80, 0x96, 0x38, 0x3d, 0xa4, 0x54, 0xa4, 0x3d, 0xc3, 0x7a, 0x84, 0xbe,
  0x74, 0x69, 0x89, 0x3f, 0xd7, 0xf6, 0x5f, 0x3b, 0xb5, 0x91, 0xe7, 0xbe,
  0x6d, 0xe9, 0x1c, 0xbd, 0xa2, 0x1f, 0x02, 0x40, 0xf1, 0xe5, 0x06, 0x3e,
  0xe5, 0xc3, 0x7b, 0x3e, 0x5a, 0x63, 0x9a, 0xbe, 0x7f, 0x67, 0xf7, 0x3e,
  0x00, 0x92, 0xba, 0x3d, 0xb7, 0x61, 0xca, 0x3e, 0xfb, 0x13, 0x8e, 0xbd,
  0x6a, 0xf1, 0xa1, 0x3e, 0xe6, 0x07, 0x06, 0xbf, 0xa4, 0xd7, 0xda, 0x3e,
  0x6e, 0x64, 0x48, 0x3c, 0xd9, 0x6a, 0xa2, 0x3f, 0xb5, 0xca, 0xd4, 0x3d,
  0x1e, 0xaf, 0x74, 0xbe, 0xc8, 0xbc, 0x40, 0x3e, 0x80, 0xc4, 0xf5, 0x3f,
  0x28, 0x2a, 0x32, 0x3e, 0xe9, 0x50, 0x7c, 0x3e, 0xc8, 0x58, 0x71, 0xbe,
  0x41, 0x9c, 0x9a, 0xbf, 0x12, 0xe5, 0x8e, 0xbe, 0x1a, 0x60, 0xed, 0x3e,
  0xa7, 0x5f, 0x79, 0xbe, 0x01, 0x40, 0xf7, 0xbd, 0x9a, 0xb9, 0x12, 0xbe,
  0x2f, 0xf3, 0x57, 0x3e, 0xb6, 0x81, 0x45, 0x3e, 0xd2, 0x2f, 0x7f, 0x3f,
  0x8a, 0x64, 0xf3, 0xbc, 0xf5, 0x40, 0xb0, 0x3d, 0x1c, 0xd7, 0xf2, 0xbd,
  0xd5, 0x8e, 0xd4, 0x3f, 0x0e, 0xc3, 0x2a, 0xbf, 0x3d, 0x70, 0x3c, 0x3e,
  0xfd, 0x12, 0x4c, 0x3d, 0x27, 0x0c, 0x4b, 0x3c, 0x1d, 0x0a, 0xc5, 0xbd,
  0x3c, 0x39, 0x97, 0xbd, 0xaf, 0x57, 0x07, 0x3e, 0xab, 0x9c, 0x20, 0xbf,
  0x2b, 0xb1, 0x2e, 0x3e, 0x85, 0xef, 0x41, 0x3d, 0x61, 0xd8, 0x26, 0x3e,
  0x21, 0x8e, 0xc3, 0x3f, 0x95, 0x14, 0x09, 0xbe, 0xa9, 0x06, 0x9e, 0x3b,
  0xb4, 0x4a, 0x95, 0xbe, 0x9c, 0x96, 0xd9, 0x3f, 0x39, 0x9b, 0x02, 0xbd,
  0x0d, 0xe3, 0x06, 0xbf, 0x52, 0xaa, 0xec, 0xbe, 0x1b, 0x14, 0xc7, 0x3c,
  0x48, 0x59, 0x08, 0xbe, 0x5f, 0x45, 0x08, 0x3f, 0x16, 0xaa, 0x2f, 0xbe,
  0xd1, 0xa3, 0x4e, 0xbe, 0x88, 0xe0, 0x90, 0xbd, 0xce, 0xf1, 0xf1, 0xbe,
  0x6d, 0x9c, 0x72, 0xbe, 0x1c, 0x21, 0xf4, 0x3e, 0xe3, 0x0e, 0xa9, 0x3d,
  0x66, 0xea, 0x48, 0x3d, 0x87, 0x33, 0xf1, 0x3d, 0x6f, 0x41, 0x00, 0x3f,
  0xcb, 0xfb, 0xc7, 0x3d, 0x08, 0xb6, 0x3e, 0x3e, 0xde, 0xe4, 0x6d, 0x3a,
  0x06, 0xb2, 0x32, 0x3e, 0xc4, 0xf3, 0xa0, 0xbd, 0x3f, 0xce, 0x42, 0xbe,
  0xe9, 0xc1, 0x0a, 0x3e, 0x8f, 0xa3, 0x50, 0xbd, 0xc7, 0x4e, 0xe4, 0xbe,
  0x3d, 0xff, 0xbf, 0xbe, 0xa1, 0xc1, 0xc4, 0xbc, 0x53, 0x95, 0xbe, 0x3f,
  0x74, 0x17, 0x5f, 0xbe, 0xa4, 0xeb, 0xdc, 0xbd, 0x28, 0x82, 0x13, 0xbd,
  0x39, 0xe5, 0xc9, 0x3e, 0xea, 0x58, 0x58, 0xbc, 0xf4, 0x68, 0xbf, 0xbe,
  0xab, 0xdd, 0x47, 0xbc, 0x45, 0xc4, 0xe1, 0xbb, 0x86, 0xee, 0x2e, 0xbd,
  0xbb, 0xee, 0xcb, 0x3e, 0x90, 0x12, 0xae, 0xbe, 0x4b, 0x1c, 0x07, 0xbe,
  0xe7, 0xdc, 0x74, 0xbe, 0x00, 0xc9, 0xfa, 0x3d, 0xf8, 0xd3, 0x64, 0xbd,
  0x32, 0x15, 0xb8, 0x3f, 0x34, 0x76, 0x2f, 0x3e, 0x01, 0xc7, 0x8d, 0xbe,
  0x2f, 0x60, 0x04, 0x3e, 0x27, 0xcd, 0x0b, 0x3f, 0xef, 0x5f, 0xdb, 0xbc,
  0x36, 0x41, 0xd5, 0x3e, 0xd6, 0x41, 0xd7, 0x3d, 0xc3, 0x11, 0x85, 0xbf,
  0x59, 0x42, 0xc4, 0xbe, 0x43, 0x6b, 0x92, 0x3e, 0x94, 0x16, 0xca, 0xbe,
  0x2a, 0x7e, 0x06, 0xbf, 0x7b, 0x9a, 0xbe, 0x3d, 0xe4, 0xe1, 0xb1, 0x3e,
  0xda, 0xe1, 0xdb, 0x3d, 0x0c, 0x8e, 0xd8, 0x3f, 0xb0, 0x62, 0x3b, 0x3d,
  0xf5, 0xd2, 0xfc, 0xbe, 0x2e, 0xd3, 0x5a, 0xbe, 0x0c, 0x7f, 0x5a, 0x3f,
  0xb0, 0x6b, 0x32, 0xbf, 0xa0, 0x46, 0xab, 0x3d, 0x55, 0xfb, 0x82, 0xbc,
  0x1c, 0x51, 0x30, 0x3e, 0xae, 0xee, 0x5d, 0x3d, 0xf6, 0x68, 0x14, 0xbf,
  0xdd, 0xad, 0x98, 0x3d, 0xeb, 0xc0, 0x0b, 0xbf, 0x8a, 0x44, 0x37, 0xbe,
  0xac, 0x0f, 0x6c, 0x3d, 0x6a, 0x07, 0xb4, 0xbc, 0x5b, 0x51, 0x15, 0x40,
  0x35, 0x8c, 0xae, 0xbe, 0xcd, 0x3a, 0xb3, 0xbe, 0x0c, 0x94, 0xaf, 0xbe,
  0x6e, 0xeb, 0x4d, 0x3f, 0x0d, 0xff, 0x1c, 0xbc, 0x54, 0x3f, 0x4f, 0xbe,
  0x8b, 0x2c, 0xd8, 0xbe, 0xc6, 0x4c, 0x2a, 0x3f, 0x56, 0x7d, 0xe3, 0xbd,
  0x5d, 0x3b, 0xb2, 0xbe, 0x10, 0xd3, 0xb2, 0x3b, 0x16, 0x28, 0xc0, 0x3e,
  0x01, 0x45, 0xef, 0xbd, 0xd6, 0xac, 0x55, 0x3c, 0x47, 0x72, 0x3a, 0xbe,
  0xfa, 0x21, 0xe8, 0x3f, 0xc2, 0xe2, 0x08, 0xbe, 0x0f, 0x5d, 0x06, 0xbf,
  0x02, 0x45, 0x2e, 0xbd, 0x23, 0x86, 0x52, 0x3f, 0x45, 0x7b, 0x88, 0x3d,
  0x91, 0xec, 0x87, 0x3e, 0xd9, 0x00, 0x8c, 0xbe, 0x01, 0x7e, 0xe0, 0xbb,
  0xdd, 0x4f, 0xc3, 0xbd, 0x46, 0x34, 0xb2, 0x3e, 0xa3, 0xda, 0xf9, 0x3c,
  0xff, 0xae, 0x8b, 0x3e, 0x3d, 0xf6, 0x9a, 0xbc, 0x0f, 0x86, 0x3c, 0x3e,
  0x20, 0x25, 0x8c, 0xbd, 0xad, 0x1a, 0x81, 0x3f, 0x10, 0x96, 0x0d, 0x3d,
  0x6d, 0x1d, 0x77, 0xbe, 0x86, 0xdf, 0x88, 0x3d, 0x8c, 0xff, 0x2f, 0x3f,
  0x55, 0x72, 0x48, 0x3e, 0x51, 0x92, 0x93, 0x3e, 0x9b, 0x0b, 0x32, 0xbe,
  0xcf, 0x5c, 0x12, 0xbd, 0x0a, 0x2f, 0xe5, 0xbd, 0x64, 0x18, 0xc3, 0x3e,
  0x5a, 0xbb, 0xfa, 0x3c, 0xf0, 0xbd, 0x0a, 0xbf, 0xaa, 0xbc, 0xfb, 0x3d,
  0x62, 0x2e, 0xac, 0x3d, 0x7c, 0xaa, 0x56, 0xbd, 0x3d, 0xbb, 0x48, 0x3f,
  0x8e, 0xfd, 0x10, 0x3e, 0x6d, 0x99, 0x3a, 0xbe, 0x74, 0x57, 0x01, 0x3d,
  0xc3, 0x32, 0xf1, 0x3e, 0x87, 0x99, 0x12, 0xbc, 0x09, 0x0a, 0x39, 0x3d,
  0x84, 0x4c, 0x84, 0xbd, 0x3e, 0x53, 0xa9, 0x3e, 0xff, 0x86, 0x98, 0xbd,
  0x5d, 0x12, 0xa2, 0xbf, 0x80, 0xfa, 0xc4, 0x3d, 0x44, 0xdd, 0x4c, 0xbe,
  0x15, 0xc3, 0x9f, 0xbe, 0x55, 0xed, 0x37, 0xbd, 0x5a, 0x5f, 0x9e, 0x3b,
  0x5a, 0x61, 0x03, 0xbe, 0x67, 0x1d, 0x59, 0xbe, 0x60, 0xa2, 0x12, 0xbe,
  0xd0, 0xfc, 0xe7, 0xbe, 0x93, 0xc8, 0x1e, 0xbf, 0x31, 0xf3, 0x1f, 0xbd,
  0xdb, 0x18, 0x38, 0xbf, 0x32, 0x69, 0x08, 0x3d, 0x76, 0xb2, 0xb9, 0x3d,
  0x0a, 0xeb, 0xc9, 0xbe, 0x6b, 0x40, 0x9b, 0x3e, 0xc9, 0xbf, 0x84, 0x3e,
  0x83, 0x62, 0x2a, 0x3f, 0x30, 0x0b, 0xf3, 0x3d, 0x92, 0xe0, 0x0e, 0xbd,
  0x7f, 0x20, 0xa9, 0xbe, 0xfb, 0x2d, 0xc4, 0x3d, 0xd9, 0xd1, 0x32, 0x3e,
  0x84, 0x69, 0x6d, 0xbe, 0x52, 0x26, 0xd0, 0xb9, 0x14, 0x70, 0xa1, 0x3c,
  0x9d, 0x01, 0xc1, 0xbd, 0x50, 0x0d, 0xad, 0x3d, 0xdc, 0xb2, 0x88, 0x3d,
  0x9f, 0x44, 0x0b, 0x3f, 0x56, 0x66, 0x00, 0xbf, 0x0f, 0x15, 0x44, 0x3e,
  0x03, 0x92, 0xa0, 0xbd, 0xe0, 0x25, 0xfc, 0x3e, 0xd7, 0x9b, 0x6e, 0x3e,
  0x38, 0xb0, 0x3e, 0x3e, 0x47, 0xb2, 0x5a, 0xbe, 0xa6, 0xa2, 0x2d, 0xbe,
  0x3d, 0x9d, 0x0c, 0x3e, 0x79, 0x86, 0xa0, 0xbe, 0x76, 0xde, 0x81, 0xbe,
  0x1d, 0x29, 0x23, 0x3e, 0xc9, 0x51, 0x79, 0xbe, 0x21, 0xef, 0x4b, 0x3e,
  0xca, 0xad, 0xa0, 0x3e, 0x19, 0x98, 0xe6, 0x3d, 0xab, 0x4d, 0x04, 0x3d,
  0xa2, 0xf2, 0x6e, 0x3e, 0xf2, 0x77, 0x89, 0xbe, 0xa3, 0xaa, 0xc3, 0xbc,
  0x55, 0xf1, 0xc2, 0x3e, 0x6e, 0xb0, 0x59, 0x3e, 0x01, 0x1c, 0xf1, 0xbd,
  0x0f, 0x7e, 0x0d, 0xbe, 0x87, 0x13, 0x86, 0x3d, 0x96, 0xa6, 0x3c, 0xbf,
  0xd9, 0x48, 0x32, 0xbe, 0x90, 0x3d, 0x43, 0xbe, 0x32, 0xcd, 0xfa, 0xbd,
  0x00, 0xb1, 0x7c, 0x3e, 0x54, 0x53, 0xcd, 0x3d, 0x2d, 0x99, 0x45, 0xbf,
  0x7a, 0xcc, 0x80, 0x3a, 0x1e, 0x14, 0x1a, 0x3e, 0x60, 0xf7, 0x23, 0xbf,
  0xb6, 0xca, 0xa7, 0xbe, 0x41, 0xa0, 0xa4, 0xbc, 0x69, 0x68, 0xb4, 0x3d,
  0xbc, 0x26, 0x70, 0xbe, 0x14, 0xae, 0xca, 0xbd, 0xd0, 0x75, 0xb9, 0xbe,
  0x38, 0x21, 0xc4, 0xbd, 0x8d, 0x4a, 0x4f, 0xbf, 0xa4, 0xb5, 0xdc, 0xbc,
  0x48, 0xca, 0xb0, 0xbd, 0x3a, 0x87, 0x03, 0xbe, 0x5f, 0xd6, 0xf1, 0xbb,
  0x49, 0x33, 0xa8, 0xbf, 0x28, 0xc8, 0x52, 0xbe, 0xc4, 0x82, 0x1b, 0xbf,
  0x49, 0x9a, 0x7f, 0xbf, 0xbc, 0xdd, 0xfa, 0xbe, 0xb8, 0xf2, 0x40, 0xbe,
  0x57, 0x26, 0x4f, 0xbd, 0x7f, 0x5a, 0xdf, 0xbd, 0x48, 0xa2, 0x5a, 0xbe,
  0x91, 0x65, 0xbc, 0xbd, 0xc8, 0x4c, 0xba, 0xbe, 0x04, 0x2f, 0xf8, 0xbc,
  0x7d, 0x61, 0x14, 0x3e, 0x74, 0xf4, 0x95, 0xbe, 0x70, 0xfc, 0x95, 0xbd,
  0xa5, 0xa7, 0x2e, 0xbe, 0x06, 0x4f, 0x84, 0xbc, 0x5f, 0x92, 0xad, 0xbd,
  0xf6, 0x8d, 0xf8, 0xbe, 0xa0, 0x5f, 0x52, 0x3e, 0x4a, 0x99, 0x4d, 0xbe,
  0x49, 0xf1, 0x5f, 0xbe, 0x2c, 0x23, 0x88, 0x3e, 0x27, 0xb7, 0x5c, 0xbe,
  0x3f, 0xd4, 0x88, 0x3b, 0xc9, 0x13, 0x6c, 0xbf, 0xc9, 0xae, 0x83, 0xbe,
  0x73, 0x00, 0x87, 0xbe, 0x03, 0x22, 0x85, 0x3e, 0x7e, 0x82, 0xd3, 0xbd,
  0x55, 0xe0, 0x34, 0xbf, 0x9e, 0xb9, 0x9d, 0xbe, 0x7c, 0x30, 0x43, 0xbd,
  0x41, 0xc4, 0xf4, 0xbd, 0xb5, 0xd0, 0xdb, 0xbe, 0x8b, 0x36, 0xe1, 0xbe,
  0xdd, 0x1b, 0xa8, 0xbd, 0xfe, 0xdd, 0x0c, 0xbf, 0x9b, 0xc4, 0x14, 0xbf,
  0x2b, 0x4d, 0xe1, 0xbe, 0x69, 0x93, 0xb0, 0x3f, 0x63, 0x47, 0xd2, 0x3e,
  0x54, 0x53, 0xd0, 0xbd, 0xfa, 0x8b, 0xa2, 0x3e, 0x20, 0xba, 0xa4, 0x3f,
  0x02, 0x95, 0x26, 0x3e, 0xaf, 0x32, 0xb6, 0xbd, 0x98, 0x83, 0x40, 0xbe,
  0x13, 0xa0, 0x45, 0x3e, 0x2b, 0x9c, 0x21, 0x3e, 0x38, 0x08, 0xa7, 0x3e,
  0x33, 0xfd, 0xae, 0xbe, 0xf8, 0xfe, 0x44, 0x3e, 0x04, 0xa1, 0x03, 0xbf,
  0xbb, 0xe3, 0x44, 0x3e, 0x7d, 0x37, 0x88, 0x3e, 0xbd, 0x9d, 0xe2, 0x3f,
  0x02, 0xbd, 0xbd, 0x3d, 0x63, 0x1c, 0x40, 0xbe, 0xee, 0x5c, 0x5f, 0xbd,
  0x77, 0x2a, 0x00, 0x40, 0xb5, 0xd7, 0xfb, 0x3c, 0x8c, 0x3e, 0xfc, 0x3e,
  0x1f, 0xbc, 0x36, 0xbe, 0xf0, 0x0b, 0x8a, 0x3e, 0xcc, 0x77, 0xa4, 0xbd,
  0xed, 0x24, 0x9c, 0xbc, 0x12, 0x7a, 0x4e, 0x3c, 0x5a, 0x0f, 0x23, 0xbf,
  0x3c, 0xc9, 0x80, 0xbe, 0x6d, 0xd0, 0x31, 0x3e, 0x85, 0xf6, 0x0f, 0x3e,
  0xe6, 0xcf, 0xf2, 0x3f, 0xd5, 0x00, 0x90, 0x3b, 0xa6, 0x67, 0x0b, 0xbf,
  0xfb, 0x21, 0xd6, 0xbd, 0x5f, 0x63, 0xb2, 0x3f, 0x2b, 0xaf, 0x39, 0xbe,
  0xc6, 0xd3, 0xa2, 0x3e, 0xd2, 0x53, 0x65, 0xbe, 0x39, 0xcd, 0xc6, 0x3e,
  0xa6, 0x3a, 0xb8, 0x3d, 0x21, 0x08, 0x96, 0xbc, 0x91, 0xff, 0x88, 0xbe,
  0x54, 0x60, 0x76, 0xbf, 0xc7, 0x2e, 0xb3, 0xbb, 0xd7, 0x33, 0xc0, 0x3d,
  0x87, 0x8c, 0xa8, 0xbc, 0x48, 0x5f, 0x8b, 0x3f, 0x87, 0x0d, 0x66, 0xbd,
  0xd4, 0x9b, 0xfd, 0xbe, 0x24, 0xda, 0x80, 0x3c, 0xc1, 0x88, 0xe9, 0x3f,
  0x3d, 0x4c, 0x86, 0x3e, 0x79, 0x22, 0x46, 0x3e, 0x13, 0x3b, 0x0a, 0xbe,
  0xbf, 0x5e, 0xbb, 0x3e, 0x61, 0x50, 0x3a, 0x3c, 0xee, 0xdc, 0x07, 0x3e,
  0x60, 0x9d, 0x0f, 0xbf, 0xfe, 0x02, 0x10, 0x3f, 0x5d, 0x2d, 0x32, 0x3c,
  0x7f, 0x53, 0x9a, 0x3e, 0x87, 0xce, 0x51, 0x3c, 0x7c, 0xef, 0xe4, 0x3f,
  0xe7, 0xcb, 0x32, 0xbd, 0x7d, 0x5e, 0x41, 0xbe, 0xd5, 0x50, 0xf6, 0x3d,
  0xdd, 0x36, 0xc0, 0x3f, 0xf8, 0x45, 0x22, 0x3e, 0x13, 0x19, 0x62, 0x3e,
  0x6f, 0xee, 0xd7, 0xbe, 0x0c, 0xca, 0xd9, 0xbc, 0x18, 0xb7, 0x6d, 0x3c,
  0x6d, 0xc3, 0x74, 0x3e, 0x64, 0x06, 0x19, 0xbf, 0x2a, 0x37, 0x8d, 0x3e,
  0xee, 0xaf, 0xd7, 0xbe, 0x4f, 0x19, 0xc4, 0x3d, 0x9c, 0x6a, 0x3f, 0x3e,
  0x55, 0xe5, 0xaa, 0x3f, 0x82, 0xc2, 0x18, 0x3e, 0xb7, 0x29, 0x3c, 0xbd,
  0x7e, 0x01, 0xa6, 0x3d, 0x80, 0x96, 0x7e, 0x3f, 0xdd, 0x3f, 0x87, 0x3e,
  0x05, 0x24, 0xab, 0x3e, 0xeb, 0xac, 0xb4, 0xbe, 0x0c, 0xc7, 0x5f, 0x3e,
  0xe3, 0x8d, 0x12, 0xbe, 0x76, 0x41, 0x20, 0xbd, 0xa8, 0x1f, 0x6e, 0xbe,
  0x97, 0xa4, 0x4a, 0xbe, 0xd4, 0x86, 0x8a, 0xbe, 0xb0, 0x03, 0x90, 0xbd,
  0x13, 0xb4, 0xd2, 0xbe, 0x73, 0x73, 0xa5, 0x3e, 0x43, 0xe2, 0xf3, 0x3c,
  0x8e, 0xbd, 0xcb, 0xbc, 0x2d, 0x13, 0x1f, 0xbe, 0x80, 0xf0, 0x4b, 0x3f,
  0xe2, 0x99, 0x3f, 0x3e, 0x7f, 0x10, 0x34, 0x3d, 0x1f, 0x25, 0xda, 0x3d,
  0x10, 0xf2, 0x33, 0xbe, 0xfa, 0xa7, 0x36, 0x3e, 0x6f, 0x25, 0x88, 0xbd,
  0x93, 0x19, 0x3b, 0xbd, 0xb4, 0xf8, 0x89, 0xbc, 0xb4, 0x4d, 0xd2, 0x3e,
  0x2e, 0x2a, 0xfc, 0x3c, 0x7e, 0x4b, 0x58, 0xbd, 0x71, 0x06, 0x73, 0x3e,
  0xa7, 0x2d, 0x85, 0xbd, 0xde, 0x6a, 0x6b, 0xbd, 0x63, 0x69, 0x0e, 0x39,
  0x87, 0x00, 0x39, 0xbe, 0xf1, 0xb7, 0x56, 0x3e, 0x64, 0x17, 0xc1, 0x3d,
  0xbe, 0x41, 0xe7, 0x3d, 0x4a, 0xcf, 0xef, 0x3d, 0x7b, 0xf9, 0x60, 0x3e,
  0x0b, 0x3d, 0x67, 0xbe, 0x5d, 0xee, 0xa6, 0xbd, 0xa4, 0x13, 0x9d, 0x3d,
  0x68, 0xbd, 0x13, 0xbe, 0xd9, 0xb7, 0x94, 0xbf, 0x6a, 0x5b, 0xa8, 0xbc,
  0x5a, 0xe0, 0x01, 0xbe, 0xeb, 0x31, 0x9b, 0xbe, 0xde, 0x39, 0x48, 0x3d,
  0x18, 0xd5, 0x57, 0xbe, 0x9d, 0xb3, 0xab, 0xbe, 0x25, 0x92, 0x2b, 0x3e,
  0x9c, 0x7b, 0x85, 0xbe, 0xf7, 0xf2, 0xce, 0x3c, 0xd1, 0xe4, 0x7e, 0x3e,
  0xd7, 0x35, 0x89, 0x3e, 0xb5, 0xf3, 0x35, 0xbc, 0x4c, 0xb3, 0x05, 0xbf,
  0x6d, 0x2a, 0x03, 0xbe, 0xa5, 0xf9, 0xe8, 0xbe, 0x6a, 0x56, 0x53, 0xbf,
  0x43, 0x21, 0x7d, 0x3d, 0x51, 0xf7, 0xd3, 0xbe, 0x97, 0x7a, 0x1d, 0xbf,
  0xb4, 0x05, 0x44, 0x3e, 0xa0, 0xac, 0xf7, 0x3c, 0x56, 0x78, 0x14, 0xbf,
  0x63, 0x6c, 0x79, 0x3d, 0x03, 0xe9, 0x49, 0xbf, 0xaf, 0x2e, 0xbc, 0xbe,
  0x3f, 0x88, 0xdc, 0x3d, 0xc5, 0x28, 0xc6, 0x3d, 0x01, 0x87, 0xa2, 0x3e,
  0x6f, 0x17, 0x39, 0xbf, 0x67, 0x56, 0x9e, 0x3d, 0xeb, 0x90, 0xde, 0xbe,
  0xf5, 0xd1, 0x4b, 0xbf, 0xf9, 0xad, 0x4a, 0x3c, 0xe8, 0x52, 0xef, 0x3e,
  0x6d, 0x29, 0xf2, 0xbe, 0x04, 0x74, 0x21, 0xbe, 0x19, 0x0c, 0x94, 0xbe,
  0xfa, 0x30, 0x29, 0xbf, 0xf6, 0xca, 0x0b, 0xbe, 0xec, 0x27, 0x45, 0xbf,
  0x57, 0x39, 0x10, 0x3d, 0xfd, 0x5d, 0xfe, 0x3d, 0xab, 0xc7, 0x4e, 0x3e,
  0xd8, 0x78, 0x34, 0x3e, 0xd0, 0x9d, 0x2f, 0xbf, 0x0f, 0x1c, 0x86, 0x3e,
  0xfe, 0xc6, 0x5d, 0x3d, 0xf9, 0x2c, 0x13, 0xbf, 0x60, 0xad, 0x11, 0x3e,
  0x64, 0x15, 0x0a, 0x3f, 0xb8, 0x51, 0xee, 0xbe, 0xcd, 0xfd, 0x4f, 0x3c,
  0xe1, 0x96, 0x8e, 0xbe, 0x28, 0x29, 0xc1, 0xbc, 0xad, 0xbe, 0x06, 0xbe,
  0x60, 0xd1, 0x19, 0xbf, 0xb4, 0x27, 0x80, 0x3e, 0xd8, 0x47, 0xcc, 0xbe,
  0x5f, 0xa3, 0xf4, 0x3e, 0xf2, 0x11, 0x34, 0x3e, 0x1a, 0x22, 0x39, 0xbf,
  0xac, 0x7f, 0x19, 0x3e, 0x1e, 0xc4, 0x4e, 0x3e, 0x20, 0x1c, 0xcb, 0xbe,
  0x88, 0x52, 0x15, 0x3e, 0x02, 0x7b, 0xe6, 0xbd, 0x28, 0xcf, 0x11, 0xbf,
  0x94, 0x25, 0xdb, 0x3e, 0xf9, 0xe8, 0xd7, 0xbe, 0xe2, 0x55, 0xb8, 0xbe,
  0xcf, 0xae, 0x6f, 0xbd, 0xf2, 0x17, 0x40, 0x3c, 0x03, 0xb5, 0xa2, 0x3e,
  0xa8, 0x1f, 0x51, 0xbe, 0x68, 0xff, 0x0b, 0xbe, 0xd6, 0x6d, 0x25, 0x3e,
  0xdf, 0x6e, 0xba, 0xbd, 0x64, 0xc1, 0xb3, 0xbe, 0x9e, 0xf9, 0xa8, 0xbe,
  0x80, 0x47, 0x1a, 0x3e, 0x0b, 0x7e, 0xbc, 0xbd, 0x47, 0xb8, 0x43, 0x3f,
  0x15, 0x32, 0x4a, 0xbe, 0x2c, 0x67, 0x8e, 0xbb, 0xb6, 0xae, 0x01, 0xbe,
  0x7d, 0x8e, 0x0d, 0x3e, 0x31, 0x32, 0x4c, 0x3e, 0x74, 0xa2, 0x71, 0x3e,
  0xf2, 0xe7, 0x14, 0xbe, 0x7a, 0x1a, 0x01, 0xbf, 0xf4, 0x18, 0xe8, 0xbb,
  0x25, 0xe5, 0xdb, 0xbe, 0xa0, 0xe3, 0x15, 0xbd, 0x29, 0x2e, 0x2d, 0xbd,
  0x27, 0x89, 0xb7, 0x3d, 0x28, 0x27, 0x43, 0xbf, 0x2f, 0x26, 0xb4, 0xbe,
  0x74, 0x90, 0x90, 0x3f, 0xbd, 0x6d, 0x7c, 0x3e, 0x56, 0x21, 0x2f, 0x3c,
  0xeb, 0xcf, 0x09, 0xbe, 0xb2, 0xba, 0x95, 0x3e, 0x2c, 0xf9, 0x5b, 0x3d,
  0x32, 0x2b, 0x23, 0xbe, 0x84, 0x66, 0x27, 0xbe, 0x51, 0x37, 0xa6, 0xbe,
  0xb0, 0x18, 0x41, 0xbd, 0x27, 0x3b, 0x21, 0xbc, 0xde, 0xcf, 0x1d, 0xbe,
  0x24, 0x3a, 0xb4, 0xbe, 0x68, 0x87, 0x24, 0x3e, 0xb6, 0x99, 0x8c, 0x3d,
  0x34, 0xe8, 0xc0, 0x3d, 0x87, 0xae, 0x8f, 0x3f, 0x70, 0xf4, 0xa6, 0xbd,
  0x15, 0x0a, 0x3a, 0xbe, 0x5e, 0xc3, 0x18, 0xbf, 0xb3, 0x75, 0x38, 0x3f,
  0x65, 0xcd, 0x34, 0xbf, 0x57, 0x05, 0xd2, 0xbd, 0xe2, 0xb1, 0x84, 0xbe,
  0x87, 0x8c, 0xc5, 0xbe, 0x77, 0xed, 0x86, 0x3c, 0xa0, 0xaf, 0xf6, 0xbd,
  0x90, 0xa3, 0x71, 0xbe, 0x26, 0x0c, 0x2c, 0xbf, 0x8c, 0x37, 0x6c, 0x3e,
  0x4a, 0x4d, 0x14, 0xbe, 0x98, 0x8c, 0x8f, 0xbe, 0xa7, 0xaf, 0x70, 0x3f,
  0xe4, 0x29, 0x7c, 0xbd, 0x2a, 0x4a, 0xb3, 0xba, 0xeb, 0xf2, 0x99, 0xbe,
  0xb8, 0x49, 0x58, 0x3f, 0x2e, 0xbc, 0x32, 0xbe, 0xfe, 0x07, 0x40, 0xbc,
  0xbe, 0xb9, 0x3d, 0xbd, 0x71, 0xe8, 0xb1, 0xbe, 0x2d, 0xc4, 0x0f, 0xbe,
  0x82, 0xa0, 0x2d, 0xbe, 0xf7, 0xc1, 0xd8, 0xbd, 0xfb, 0x97, 0x9b, 0xbe,
  0xc5, 0xcf, 0x0d, 0x3d, 0x6d, 0x81, 0x7f, 0x3d, 0xf0, 0x3e, 0x6d, 0xbd,
  0x35, 0xdc, 0x84, 0x3f, 0x8a, 0x4e, 0xe3, 0xbd, 0x44, 0xdd, 0x38, 0x3e,
  0x06, 0x6c, 0x5f, 0xbe, 0x30, 0x67, 0xa7, 0x3e, 0xd9, 0x31, 0x6d, 0xbe,
  0xb8, 0x39, 0x4c, 0x3d, 0x37, 0xe2, 0x27, 0xbd, 0xd3, 0x37, 0x03, 0xbf,
  0x42, 0x45, 0x8f, 0xbe, 0xad, 0xd7, 0xbb, 0xbc, 0x5f, 0x64, 0xef, 0xba,
  0x2b, 0x65, 0x1a, 0xbf, 0x39, 0x40, 0xec, 0x3c, 0x16, 0xdd, 0x24, 0xbe,
  0x0b, 0x22, 0xe3, 0x3d, 0x93, 0x61, 0xb3, 0x3f, 0x33, 0x86, 0x1c, 0xbe,
  0x5f, 0x1b, 0x10, 0xbe, 0x16, 0x1b, 0xa5, 0xbe, 0x74, 0xa4, 0x46, 0x3f,
  0xf4, 0xa4, 0xe7, 0xbe, 0x7d, 0xc5, 0x17, 0xbe, 0x4e, 0x6e, 0x29, 0xbd,
  0xfe, 0xe0, 0x1d, 0xbf, 0x42, 0x3e, 0xb8, 0x3d, 0xde, 0x4c, 0x5f, 0xbe,
  0xa5, 0x0b, 0x50, 0xbe, 0xc7, 0x6e, 0x03, 0xbf, 0x91, 0x1e, 0xad, 0x3c,
  0x9e, 0x97, 0x92, 0xbe, 0x84, 0x59, 0x16, 0xbe, 0x00, 0xdf, 0xa0, 0x3f,
  0xf1, 0x81, 0xf7, 0xbe, 0x0e, 0xda, 0x99, 0xbd, 0x39, 0x15, 0x51, 0x3d,
  0x10, 0x33, 0x38, 0x3e, 0x4c, 0xc2, 0x21, 0xbf, 0x5f, 0x9d, 0x96, 0xbe,
  0xc5, 0xd7, 0x94, 0xbd, 0x16, 0x76, 0xf9, 0x3c, 0x44, 0xe2, 0xb5, 0xbd,
  0x5b, 0x07, 0x3d, 0xbd, 0x42, 0xf0, 0x0e, 0xbd, 0xd5, 0xb0, 0x38, 0xbf,
  0xdb, 0x62, 0x88, 0x3e, 0x84, 0x0b, 0x4f, 0xbc, 0xd9, 0x15, 0xab, 0x3d,
  0xe2, 0xdd, 0x81, 0x3f, 0x82, 0xed, 0x32, 0xbe, 0x84, 0x30, 0x2d, 0xbe,
  0xce, 0x7f, 0xba, 0xbe, 0xc1, 0x5c, 0x85, 0x3e, 0x23, 0xc7, 0x01, 0xbd,
  0xfd, 0x39, 0x1a, 0xbe, 0x71, 0x15, 0xc1, 0x3c, 0xc6, 0x55, 0x99, 0x3e,
  0x7f, 0xc2, 0x94, 0xbd, 0x83, 0x0c, 0x0d, 0xbe, 0xa6, 0x39, 0x26, 0xbf,
  0x8e, 0xd2, 0xd5, 0xbd, 0x44, 0x2e, 0x80, 0xbe, 0xfc, 0xc9, 0x0d, 0xbe,
  0x99, 0x2f, 0x1a, 0xbd, 0x5e, 0x30, 0x07, 0xbd, 0x8b, 0xaa, 0x2b, 0xbe,
  0x88, 0x70, 0x0a, 0x3b, 0xd4, 0x1a, 0x20, 0xbc, 0x19, 0xba, 0xdf, 0xbd,
  0xa5, 0xe8, 0x61, 0xbe, 0xdc, 0x2f, 0x23, 0xbe, 0x64, 0xda, 0x0f, 0x3e,
  0xa9, 0xc0, 0x29, 0xbf, 0x6a, 0xd2, 0x25, 0xbe, 0xa6, 0xb9, 0x80, 0xbe,
  0x79, 0x65, 0x31, 0xbf, 0x98, 0xc3, 0x37, 0xbe, 0x35, 0x46, 0x64, 0xbd,
  0xcf, 0x0c, 0xa3, 0x3d, 0xed, 0xaa, 0x2e, 0xbd, 0x47, 0x93, 0x82, 0xbe,
  0xfa, 0x25, 0xc7, 0xbe, 0xd6, 0x88, 0xc4, 0xbe, 0xe2, 0xdf, 0x0d, 0xbf,
  0xb9, 0x04, 0x65, 0xbd, 0xed, 0x12, 0x03, 0xbf, 0x10, 0xcd, 0x88, 0xbf,
  0x42, 0xaf, 0x77, 0x3d, 0x6d, 0x2e, 0x0d, 0xbf, 0x21, 0x52, 0x8f, 0xbe,
  0xb4, 0x3c, 0x79, 0xbe, 0x67, 0xe1, 0xe3, 0x3c, 0xc2, 0xe2, 0x72, 0xbe,
  0x9b, 0x48, 0x0d, 0xbe, 0x06, 0x83, 0x09, 0x3e, 0x2f, 0x3f, 0x84, 0xbd,
  0x1f, 0xc1, 0x2f, 0xbe, 0x41, 0x7e, 0x83, 0xbe, 0x45, 0x85, 0x3d, 0x3e,
  0xe4, 0x87, 0x96, 0xbe, 0x38, 0x44, 0x22, 0x3e, 0xc5, 0x6d, 0x23, 0xbe,
  0x13, 0x72, 0x5f, 0x3d, 0x12, 0x81, 0x9f, 0x3d, 0x97, 0xee, 0x81, 0x3e,
  0x5c, 0x32, 0xc2, 0xbc, 0x06, 0xa9, 0x9a, 0xbb, 0x7f, 0xf3, 0xc0, 0x3e,
  0xe7, 0xe6, 0xab, 0xbe, 0x08, 0x41, 0x2f, 0xbd, 0x12, 0x95, 0xa4, 0x3e,
  0xc8, 0xb5, 0xc6, 0x3d, 0x5a, 0x42, 0x73, 0xbd, 0x93, 0x1d, 0x0b, 0xbd,
  0x60, 0x2c, 0xc6, 0x3c, 0x5b, 0x5a, 0x0a, 0x3d, 0xc2, 0x48, 0xbd, 0xbd,
  0x4b, 0x24, 0xbf, 0x3d, 0xfb, 0xc3, 0xa5, 0x3d, 0xc1, 0x6f, 0xf3, 0xbe,
  0x39, 0x3c, 0x54, 0x3e, 0xc2, 0x9b, 0xf8, 0xbd, 0x0c, 0xbb, 0x2f, 0x3e,
  0x82, 0x96, 0x09, 0x3f, 0x15, 0x95, 0x9d, 0xbe, 0x27, 0x2f, 0xb6, 0xbc,
  0xaa, 0x9f, 0x7c, 0xbe, 0x8a, 0x22, 0x56, 0xbe, 0x74, 0x8a, 0x83, 0xbd,
  0xbb, 0x30, 0xd4, 0xbd, 0xd8, 0x06, 0x2b, 0xbe, 0x4b, 0xad, 0x98, 0xbe,
  0x07, 0xfd, 0xdb, 0xbd, 0xc9, 0xc7, 0x0d, 0x3d, 0xfa, 0x5e, 0xd6, 0x3d,
  0xd0, 0x96, 0xa7, 0xbd, 0x3b, 0x73, 0x9e, 0x3e, 0x84, 0xbe, 0x9b, 0xbe,
  0xd2, 0x7c, 0x4d, 0x3d, 0x86, 0xf1, 0xcb, 0xbe, 0x91, 0xba, 0x57, 0x3f,
  0x48, 0xff, 0xd6, 0x3d, 0x62, 0xd8, 0x36, 0x3e, 0xbd, 0x1d, 0xa4, 0xbd,
  0x23, 0x53, 0x06, 0x3e, 0xf6, 0x51, 0xf0, 0xbc, 0xef, 0x6c, 0x10, 0xbe,
  0x33, 0xf4, 0x51, 0xbe, 0x26, 0xdc, 0xe6, 0x3d, 0x7a, 0x2f, 0x32, 0xbd,
  0x70, 0xf2, 0xe5, 0x3b, 0x64, 0x3d, 0x26, 0x3e, 0x8c, 0xf2, 0x58, 0xbe,
  0x71, 0x65, 0x30, 0xbd, 0xbb, 0x2e, 0x1a, 0x3e, 0x1f, 0xf2, 0x36, 0xbe,
  0x4d, 0x70, 0x2c, 0x3e, 0x06, 0xb5, 0xfc, 0x3d, 0xec, 0x27, 0x27, 0x3e,
  0xbf, 0xb0, 0xb8, 0x3d, 0x99, 0x2a, 0xfd, 0x3c, 0x9d, 0x68, 0x94, 0xbd,
  0xb5, 0x2f, 0x7c, 0xbd, 0x1a, 0x45, 0x1b, 0xbf, 0x70, 0x5a, 0x97, 0x3e,
  0xb9, 0xd9, 0x60, 0xbd, 0x43, 0xb1, 0xe4, 0x3d, 0x3d, 0x8d, 0x82, 0xbe,
  0x53, 0x8d, 0xb4, 0xbd, 0x47, 0x03, 0x67, 0xbe, 0x12, 0xf3, 0x46, 0xbe,
  0x16, 0xb9, 0xa7, 0xbe, 0xd7, 0x53, 0x9a, 0xbd, 0x6a, 0xdf, 0x92, 0x3e,
  0x34, 0x02, 0xdf, 0xba, 0xa2, 0x77, 0xea, 0xbe, 0x28, 0xc9, 0xd0, 0x3f,
  0xe0, 0xb8, 0x21, 0x3d, 0x0d, 0xaf, 0xe0, 0xbd, 0x81, 0x7d, 0x98, 0xbd,
  0x8a, 0x1d, 0x30, 0x3f, 0x44, 0x4b, 0x43, 0x3d, 0x6a, 0x4c, 0xaa, 0x3c,
  0x15, 0x83, 0x65, 0x3b, 0xb5, 0x7d, 0x48, 0xbe, 0x7a, 0x55, 0x20, 0xbe,
  0xb1, 0xcf, 0x8c, 0x3d, 0x58, 0x2c, 0xca, 0xbe, 0x9d, 0x6f, 0x91, 0x3d,
  0xe8, 0x46, 0xef, 0x3d, 0xce, 0xe4, 0x72, 0x3d, 0x86, 0x7a, 0x9e, 0xbe,
  0x01, 0xb9, 0x5a, 0x3f, 0xca, 0x61, 0xb8, 0x3d, 0xf6, 0xab, 0x33, 0xbe,
  0x14, 0xa4, 0x9f, 0x3e, 0xfd, 0xfc, 0xd1, 0x3f, 0x9e, 0x9d, 0x7d, 0x3b,
  0xcb, 0x5c, 0x0e, 0x3e, 0x4b, 0x79, 0xcb, 0xbd, 0xb3, 0x76, 0xd0, 0x3c,
  0xd6, 0x9d, 0x39, 0xbe, 0xbc, 0xef, 0x0f, 0xbd, 0xb9, 0x31, 0x15, 0x3d,
  0xf1, 0x92, 0x9d, 0xbe, 0x6a, 0xb6, 0xd8, 0x3c, 0xbe, 0x1f, 0x28, 0xbd,
  0xfd, 0xd8, 0x1a, 0x3e, 0x90, 0x0b, 0x75, 0x3f, 0x54, 0xb9, 0x44, 0x3e,
  0xcc, 0xd3, 0x7d, 0xbd, 0xa9, 0x58, 0x91, 0x3e, 0x94, 0x34, 0xe2, 0x3f,
  0xef, 0xc9, 0x36, 0x3e, 0xc6, 0xad, 0x20, 0x3e, 0xb4, 0x2e, 0x28, 0xbe,
  0x2d, 0x8b, 0x26, 0x3c, 0xc6, 0xe2, 0x88, 0x3c, 0xff, 0xe4, 0x2a, 0xbd,
  0x2e, 0x20, 0x98, 0x3c, 0xe0, 0x44, 0xf2, 0x3d, 0xe6, 0x07, 0xba, 0x3d,
  0x72, 0x79, 0xa1, 0x3d, 0xd7, 0x78, 0xfa, 0x3d, 0xd6, 0x93, 0xcb, 0x3f,
  0x51, 0x37, 0x32, 0x3e, 0xde, 0x3a, 0x81, 0x3e, 0xcf, 0xf3, 0x1e, 0x3e,
  0x1f, 0xea, 0xae, 0x3f, 0x96, 0xd4, 0xe4, 0x3d, 0x8c, 0x15, 0x15, 0x3e,
  0x3f, 0x5e, 0x45, 0x3a, 0xbe, 0xc4, 0xa5, 0x3d, 0x5d, 0x35, 0xc9, 0xbd,
  0x57, 0x8c, 0x02, 0xbd, 0xa6, 0x1c, 0x97, 0xbd, 0xbb, 0xc7, 0xd5, 0x3d,
  0x16, 0xb4, 0xc3, 0x3d, 0x45, 0xea, 0x23, 0xbe, 0x7a, 0x3a, 0xcd, 0x3d,
  0x52, 0x5a, 0xb4, 0x3f, 0x92, 0x40, 0x1c, 0x3e, 0x87, 0x35, 0x0b, 0x3d,
  0xf8, 0x82, 0x89, 0x3e, 0xcf, 0xa5, 0x82, 0x3f, 0xe1, 0xfc, 0x80, 0x3d,
  0x4c, 0xc5, 0x3c, 0x3d, 0x1f, 0x42, 0xe0, 0xbd, 0xf1, 0x7b, 0x67, 0xbe,
  0x32, 0x68, 0x9a, 0xbd, 0x39, 0xd5, 0x93, 0xbc, 0x89, 0x91, 0x08, 0xbe,
  0x06, 0x1f, 0x38, 0xbe, 0x8b, 0x82, 0x5d, 0x3e, 0xba, 0x01, 0x1a, 0xbe,
  0x06, 0x43, 0xd9, 0xbb, 0xd5, 0xc7, 0xf8, 0x3f, 0x83, 0x18, 0x52, 0x3e,
  0x8d, 0x6b, 0x82, 0xbe, 0x61, 0x0f, 0x7a, 0x3e, 0x62, 0x69, 0xce, 0x3f,
  0x4b, 0x0a, 0x01, 0x3e, 0x28, 0x4f, 0xb1, 0xbd, 0x55, 0x5c, 0x9c, 0xbe,
  0x90, 0x0c, 0x7b, 0xbd, 0x99, 0x49, 0xab, 0xbd, 0x6c, 0xb6, 0x82, 0xbc,
  0x6d, 0xec, 0xcc, 0x3b, 0xae, 0x0c, 0x30, 0x3e, 0xd1, 0xef, 0x9f, 0xbd,
  0x32, 0x13, 0x11, 0xbe, 0x17, 0x88, 0xf0, 0xbc, 0xf5, 0xf3, 0xc8, 0x3e,
  0x88, 0x47, 0x15, 0x3e, 0x4e, 0x38, 0xcf, 0x3c, 0xbf, 0xc1, 0x3c, 0x3e,
  0x9d, 0x6e, 0x13, 0x3e, 0x30, 0xf5, 0xd7, 0x3c, 0x60, 0x6f, 0xc9, 0xbc,
  0xcf, 0xb2, 0x72, 0xbe, 0x43, 0xe6, 0x16, 0xbf, 0x1f, 0xc7, 0xd1, 0xbd,
  0xe6, 0x0b, 0xdc, 0xbd, 0x54, 0xdc, 0x04, 0x3e, 0xcf, 0xea, 0x9d, 0xbc,
  0x92, 0x21, 0xc7, 0x3d, 0x6b, 0x3d, 0xcd, 0xbc, 0x1e, 0x71, 0x83, 0x3d,
  0x41, 0xb2, 0xc0, 0xbc, 0x16, 0x66, 0x5c, 0xbe, 0x03, 0x52, 0x2c, 0xbe,
  0x95, 0xf4, 0xae, 0xbe, 0xb3, 0xd7, 0xd9, 0xbe, 0x58, 0x86, 0x8e, 0xbe,
  0x71, 0x37, 0x4d, 0x3e, 0x52, 0xa1, 0x00, 0x3e, 0x86, 0xd3, 0x89, 0xbf,
  0x86, 0xb1, 0xfc, 0x3e, 0xe5, 0x3b, 0x4d, 0xbe, 0xb1, 0x02, 0x18, 0x3e,
  0x67, 0x26, 0x4b, 0x3e, 0x8f, 0x4c, 0xda, 0x3d, 0xe1, 0x15, 0x62, 0xbe,
  0xe4, 0x6f, 0x7d, 0x3d, 0x82, 0xe9, 0xed, 0xbc, 0x96, 0x35, 0x1e, 0xbf,
  0xa7, 0x44, 0x4a, 0x3e, 0x98, 0x28, 0xc9, 0xbe, 0x6c, 0x75, 0x98, 0xbd,
  0xe9, 0x9e, 0xbb, 0xbe, 0x5a, 0xeb, 0x61, 0xbf, 0xa2, 0x1f, 0xae, 0x3d,
  0xf9, 0x11, 0x82, 0xbe, 0xc7, 0x99, 0x04, 0x3e, 0x5e, 0xa6, 0x24, 0xbf,
  0xa4, 0x80, 0xa3, 0x3e, 0xb7, 0x54, 0x97, 0xbd, 0xec, 0x6f, 0xd2, 0xbe,
  0xc2, 0x35, 0x9d, 0xbe, 0xf6, 0x5e, 0x3e, 0xbe, 0xbc, 0x99, 0x8b, 0x3c,
  0x1c, 0x8d, 0x4e, 0xbe, 0xc5, 0x87, 0x17, 0x3e, 0xd0, 0x58, 0x89, 0xbe,
  0x5a, 0xb7, 0x38, 0xbd, 0xcf, 0x10, 0xf0, 0xbd, 0x06, 0xfc, 0x88, 0xbc,
  0x45, 0xe7, 0x29, 0x3e, 0xb8, 0xe2, 0xe4, 0xbe, 0xe0, 0x36, 0x2a, 0x3e,
  0xfb, 0xce, 0x20, 0xbf, 0x53, 0x9a, 0x89, 0x3e, 0x72, 0x70, 0x88, 0x3d,
  0xc9, 0x0b, 0xa4, 0xbe, 0x28, 0x85, 0xc5, 0xbd, 0xfa, 0xc7, 0x6a, 0xbd,
  0x29, 0x4d, 0x58, 0x3e, 0x29, 0x7a, 0xba, 0xbe, 0x2b, 0xb6, 0x27, 0x3e,
  0x9a, 0x59, 0x9d, 0xbe, 0x37, 0xcd, 0x0d, 0x3e, 0x61, 0x25, 0x2c, 0xbd,
  0x5d, 0x78, 0xe6, 0xbe, 0x6e, 0x23, 0xf3, 0x3d, 0xd6, 0x42, 0x01, 0xbe,
  0x0a, 0xb7, 0x61, 0x3e, 0x74, 0xcb, 0x49, 0xbf, 0xa1, 0x88, 0xfb, 0xbd,
  0xdd, 0xc1, 0xdb, 0x3d, 0x16, 0x2b, 0xbb, 0x3c, 0xd2, 0xb6, 0x6c, 0x3d,
  0x05, 0x33, 0x25, 0xbe, 0xb1, 0xb4, 0x92, 0x3e, 0x5b, 0x29, 0x6c, 0xbe,
  0x85, 0xb2, 0x49, 0x3e, 0x30, 0x7d, 0x23, 0xbe, 0xd5, 0x59, 0xa7, 0x3e,
  0xe5, 0xce, 0x9f, 0xbd, 0x41, 0xf0, 0x16, 0xbf, 0xc1, 0x7b, 0xbf, 0x3d,
  0x2b, 0xc1, 0x9f, 0xbd, 0xcc, 0x5e, 0x82, 0x3e, 0x4b, 0xe4, 0x80, 0xbf,
  0x9a, 0xc0, 0x83, 0x3d, 0x83, 0x1b, 0x91, 0xbe, 0x4b, 0x35, 0x1a, 0x3d,
  0x33, 0x4b, 0x24, 0xbe, 0x54, 0xe7, 0x1f, 0xbd, 0x58, 0xba, 0x9d, 0xbd,
  0x89, 0x0a, 0x44, 0xbe, 0x11, 0xe6, 0x82, 0x3e, 0x0e, 0x2e, 0x99, 0xbd,
  0x5e, 0x75, 0x47, 0xbe, 0x1c, 0xf7, 0x06, 0x3e, 0x69, 0xfa, 0x78, 0xbf,
  0xb9, 0x30, 0x75, 0x3c, 0x9e, 0xe0, 0x36, 0x3e, 0xc3, 0x6d, 0xf8, 0xbc,
  0x10, 0xd1, 0x89, 0xbf, 0xfd, 0x9f, 0xbd, 0xbd, 0x85, 0x68, 0x8c, 0xbd,
  0x86, 0x66, 0xd4, 0x3d, 0x9b, 0x31, 0x8f, 0x3d, 0xe5, 0xf6, 0x0d, 0x3e,
  0x0d, 0xce, 0xc7, 0xbe, 0xdb, 0x9b, 0x8c, 0xbe, 0x6e, 0x15, 0x78, 0x3e,
  0xa8, 0x1c, 0x0a, 0xbe, 0xdd, 0xc5, 0x3f, 0x3c, 0xd8, 0xac, 0x99, 0x3e,
  0x8e, 0xa1, 0xac, 0x3e, 0x1d, 0xad, 0xa6, 0xbb, 0x78, 0x91, 0x03, 0xbe,
  0x9c, 0x01, 0x24, 0xbe, 0x99, 0xac, 0xe1, 0xbd, 0x41, 0xc7, 0xbd, 0xbe,
  0x7f, 0xc7, 0xe7, 0x3d, 0x1a, 0x5c, 0xc3, 0xbe, 0x26, 0x92, 0x91, 0xbe,
  0x3a, 0x2c, 0x6a, 0xbe, 0xdc, 0xe1, 0x60, 0x3f, 0xbc, 0x8e, 0x24, 0xbe,
  0xa7, 0x99, 0x13, 0x3d, 0xd3, 0xe5, 0x8b, 0x3e, 0x97, 0x4c, 0xb3, 0x3f,
  0x52, 0x06, 0x4f, 0x3d, 0x4f, 0xd7, 0x5b, 0x3c, 0xeb, 0x48, 0xd5, 0xbe,
  0x20, 0xd5, 0xbf, 0xbd, 0x4c, 0xae, 0x75, 0x3d, 0x3c, 0x00, 0x80, 0xbd,
  0xcd, 0x78, 0x0d, 0xbf, 0x7a, 0xda, 0x3f, 0x3d, 0x2d, 0x89, 0x25, 0xbe,
  0x84, 0xaf, 0xda, 0x3d, 0x45, 0x2a, 0x28, 0x3d, 0x14, 0x94, 0x93, 0x3f,
  0x05, 0x30, 0x73, 0x3d, 0x5a, 0x9f, 0x95, 0xbe, 0x7a, 0xdc, 0xb6, 0x3d,
  0x1c, 0x6a, 0xcf, 0x3f, 0xc8, 0x94, 0x5f, 0x3c, 0xdc, 0xd8, 0xb0, 0x3e,
  0x70, 0xf2, 0x66, 0xbe, 0x56, 0x51, 0xbf, 0x3e, 0x2f, 0xeb, 0xf1, 0xbd,
  0xe1, 0xb3, 0x18, 0xbe, 0x9d, 0xb9, 0x63, 0xbe, 0x65, 0xe9, 0x07, 0xbe,
  0x7e, 0xce, 0xd1, 0xbc, 0xb3, 0x4f, 0xaf, 0x3e, 0x45, 0x35, 0x5c, 0x3e,
  0x9e, 0x3c, 0xb2, 0x3f, 0x03, 0x6a, 0x49, 0xbe, 0x48, 0x2a, 0xdd, 0xbe,
  0xff, 0xfe, 0xff, 0xbd, 0xd4, 0xc1, 0x98, 0x3f, 0xef, 0x80, 0xd1, 0x3c,
  0xfd, 0x64, 0x21, 0x3d, 0x99, 0x61, 0x14, 0xbf, 0x12, 0xb7, 0x15, 0x3f,
  0x70, 0xc1, 0xf9, 0x3c, 0x13, 0x90, 0xe1, 0x3d, 0x08, 0x15, 0xb2, 0x3c,
  0x32, 0xd6, 0xb0, 0x3e, 0xe7, 0x94, 0x0e, 0xbf, 0xe2, 0x4b, 0x3b, 0x3d,
  0xf4, 0xe6, 0x35, 0xbe, 0xfa, 0x62, 0x9c, 0x3f, 0x6b, 0xce, 0x23, 0x3e,
  0xe7, 0xc3, 0x9e, 0xbe, 0xc4, 0xbc, 0xfb, 0x3d, 0x4c, 0x92, 0xb2, 0x3f,
  0x2b, 0x56, 0x28, 0x3e, 0xda, 0x76, 0x34, 0x3e, 0x89, 0xcf, 0xfa, 0xbe,
  0x61, 0x56, 0xea, 0x3e, 0x97, 0x49, 0x46, 0xbd, 0x37, 0x4f, 0xaf, 0x3d,
  0x05, 0x66, 0x91, 0xbd, 0xa4, 0x2f, 0xe7, 0x3e, 0x3c, 0xb6, 0xcd, 0xbd,
  0xb3, 0x7b, 0x95, 0x3e, 0xcf, 0xd4, 0x2a, 0x3d, 0x04, 0x7b, 0x8f, 0x3f,
  0x17, 0x1a, 0x41, 0x3d, 0x06, 0x5b, 0x32, 0xbe, 0x88, 0x48, 0xe7, 0x3d,
  0xc3, 0x2d, 0x8a, 0x3f, 0x34, 0x89, 0xdf, 0x3d, 0xb1, 0xe2, 0x5f, 0x3e,
  0x91, 0x75, 0x9a, 0xbe, 0xe5, 0xa7, 0x47, 0xbe, 0xd9, 0x27, 0x95, 0xbc,
  0x53, 0xff, 0x39, 0xbd, 0x1b, 0x2e, 0x40, 0xbe, 0x48, 0xa0, 0xed, 0xbd,
  0xc7, 0x75, 0xb5, 0x3e, 0x7d, 0xec, 0x45, 0x3d, 0x05, 0x27, 0x16, 0x3e,
  0xaa, 0x3f, 0x9e, 0x3f, 0x4c, 0x25, 0x7f, 0xbe, 0x2b, 0xf8, 0x49, 0xbe,
  0x00, 0x88, 0xd4, 0xbd, 0xa9, 0xd6, 0xb1, 0x3f, 0x3d, 0x2d, 0x7a, 0x3c,
  0x78, 0x09, 0x21, 0xbf, 0xd9, 0xec, 0x5a, 0xbe, 0x10, 0xee, 0x72, 0xbe,
  0xfb, 0x7d, 0x16, 0xbe, 0x9e, 0x11, 0xd8, 0xbc, 0xb8, 0x30, 0xb3, 0xbd,
  0x5d, 0xb2, 0x1e, 0xbd, 0xf3, 0x04, 0x81, 0xbe, 0x42, 0x41, 0x1f, 0xbf,
  0x73, 0xa0, 0xae, 0xbe, 0x50, 0x3f, 0xf2, 0x3c, 0x78, 0xe1, 0x1f, 0xbe,
  0x6a, 0xab, 0xad, 0x3c, 0x99, 0x18, 0x5e, 0x3e, 0xb8, 0xf9, 0x3e, 0x3f,
  0x5a, 0x17, 0x30, 0x3e, 0x5c, 0x2d, 0xb6, 0x3e, 0x0e, 0x16, 0x7c, 0xbe,
  0x21, 0xdf, 0x2a, 0xbe, 0xe5, 0x96, 0x61, 0xbe, 0x9f, 0xba, 0x8f, 0xbd,
  0xc1, 0x90, 0xce, 0xb9, 0x49, 0xa8, 0x2f, 0x3c, 0x2e, 0x4b, 0x5a, 0x3e,
  0x2a, 0xbc, 0xa3, 0xbe, 0x22, 0x43, 0xff, 0xbd, 0x1a, 0x94, 0x04, 0xbe,
  0x42, 0xe2, 0x2e, 0xbe, 0x5b, 0x98, 0xb6, 0x3e, 0x56, 0x91, 0xba, 0xbd,
  0x65, 0x2a, 0x19, 0xbe, 0xa9, 0xf2, 0x96, 0x3e, 0xfd, 0x55, 0x73, 0x3e,
  0x5b, 0x14, 0xfe, 0x3d, 0x24, 0xa6, 0xef, 0xbe, 0x3c, 0x5d, 0x70, 0x3d,
  0x7a, 0x1c, 0x88, 0x3d, 0x79, 0x9a, 0x89, 0x3d, 0x4e, 0xf2, 0x06, 0x3f,
  0x56, 0x4b, 0x56, 0xbc, 0xe6, 0xb9, 0x96, 0xbe, 0x36, 0xe2, 0x83, 0x3d,
  0x44, 0xe7, 0x46, 0xbe, 0x28, 0x3c, 0x01, 0xbe, 0x06, 0xaf, 0x84, 0x3e,
  0xf1, 0xd2, 0xf5, 0xbd, 0x9d, 0xc4, 0x55, 0x3e, 0xbe, 0x6d, 0x90, 0x3e,
  0x50, 0x78, 0x63, 0xbd, 0xcf, 0xe2, 0x60, 0xbf, 0xf3, 0x0f, 0x30, 0xbf,
  0xbd, 0x14, 0xa9, 0xbd, 0x54, 0xa3, 0x89, 0x3e, 0xcf, 0x38, 0xe3, 0xbd,
  0xc2, 0x49, 0x37, 0xbf, 0x7d, 0x93, 0xf3, 0x3d, 0x32, 0xe6, 0x55, 0xbe,
  0x3a, 0x23, 0xf6, 0x3d, 0xfc, 0xed, 0x3b, 0xbe, 0x5b, 0xf6, 0xff, 0xbe,
  0xd8, 0x38, 0x31, 0xbf, 0x0b, 0x30, 0x2a, 0xbf, 0x34, 0x5a, 0x13, 0xbe,
  0x95, 0xb4, 0x90, 0xbf, 0x90, 0x1c, 0xb6, 0x3d, 0x19, 0xc6, 0x98, 0xbf,
  0x2b, 0x9b, 0x3f, 0xbf, 0xfc, 0x11, 0xff, 0xbe, 0x5c, 0x75, 0xff, 0x3e,
  0xdf, 0xc7, 0xf8, 0x3d, 0x3f, 0xd6, 0x6f, 0xbe, 0x3c, 0xe4, 0xf5, 0x3d,
  0xd1, 0xfe, 0x09, 0xbe, 0x25, 0x0a, 0x16, 0x3d, 0x25, 0x84, 0xb2, 0xbd,
  0xb6, 0x9b, 0x83, 0xbe, 0xb9, 0xb4, 0xfb, 0xbd, 0x36, 0x1c, 0xed, 0xbe,
  0xf0, 0xf7, 0x63, 0xbe, 0xb6, 0x18, 0x86, 0xbf, 0xa1, 0x6a, 0x61, 0x3e,
  0x3d, 0x9c, 0x53, 0xbf, 0x84, 0x4a, 0x8b, 0xbf, 0xea, 0x4c, 0x31, 0xbf,
  0xc8, 0x4b, 0xa7, 0x3e, 0x02, 0x96, 0x82, 0xbc, 0xf9, 0x6a, 0x6b, 0xbe,
  0x7a, 0x3b, 0x72, 0xbd, 0x2e, 0x6c, 0x18, 0x3e, 0xc8, 0xe1, 0x15, 0x3e,
  0x88, 0x1f, 0x5b, 0xbd, 0xfe, 0x85, 0x38, 0xbe, 0x08, 0x3e, 0x12, 0xbf,
  0x62, 0x6d, 0xd7, 0xbe, 0x45, 0xc9, 0x38, 0x3c, 0xf1, 0xca, 0xad, 0xbf,
  0x27, 0x8f, 0x83, 0x3d, 0x33, 0x4f, 0x41, 0xbe, 0x23, 0x43, 0x4e, 0xbf,
  0x89, 0xbb, 0x0a, 0x3e, 0x47, 0xf5, 0xea, 0xbd, 0x5d, 0x52, 0x4b, 0xbe,
  0xf4, 0x4f, 0xfb, 0xbe, 0x2d, 0xb3, 0x97, 0x3c, 0xa8, 0xbb, 0x7d, 0x3e,
  0x67, 0xd4, 0x9e, 0x3d, 0x00, 0xab, 0xcb, 0x3b, 0x0d, 0x88, 0xdc, 0xbe,
  0xd9, 0xda, 0x2a, 0xbe, 0x02, 0x22, 0x5b, 0xbf, 0x23, 0x55, 0x95, 0x3d,
  0x1c, 0x9c, 0x73, 0xbf, 0xf5, 0x2a, 0x42, 0x3e, 0x74, 0x7c, 0x2f, 0x3e,
  0x42, 0x97, 0x46, 0x3d, 0xaf, 0xde, 0xcc, 0x3d, 0x05, 0xa9, 0x62, 0xbd,
  0x58, 0x5f, 0x80, 0xbd, 0x22, 0xe2, 0x1b, 0xbe, 0xdf, 0xae, 0x15, 0x3e,
  0xc7, 0xa5, 0x1b, 0x3e, 0x43, 0xe4, 0xc5, 0x3d, 0xe0, 0x9b, 0xbb, 0x3c,
  0x25, 0xf5, 0x86, 0x3c, 0xa4, 0x64, 0x00, 0xbe, 0x50, 0x4f, 0x38, 0xbe,
  0x81, 0x72, 0x89, 0x3e, 0xd1, 0x86, 0xa7, 0xbe, 0xac, 0xfa, 0xc4, 0xbe,
  0x46, 0xfe, 0xff, 0xff, 0x10, 0x00, 0x00, 0x00, 0x05, 0x00, 0x00, 0x00,
  0x14, 0x00, 0x00, 0x00, 0x2c, 0x00, 0x00, 0x00, 0x02, 0x00, 0x00, 0x00,
  0x10, 0x00, 0x00, 0x00, 0x70, 0x00, 0x00, 0x00, 0x17, 0x00, 0x00, 0x00,
  0x73, 0x65, 0x71, 0x75, 0x65, 0x6e, 0x74, 0x69, 0x61, 0x6c, 0x2f, 0x64,
  0x65, 0x6e, 0x73, 0x65, 0x2f, 0x4d, 0x61, 0x74, 0x4d, 0x75, 0x6c, 0x00,
  0x34, 0xfe, 0xff, 0xff, 0x2a, 0xff, 0xff, 0xff, 0x04, 0x00, 0x00, 0x00,
  0x08, 0x00, 0x00, 0x00, 0xff, 0xff, 0xff, 0xff, 0x70, 0x00, 0x00, 0x00,
  0x00, 0x00, 0x0e, 0x00, 0x18, 0x00, 0x08, 0x00, 0x07, 0x00, 0x0c, 0x00,
  0x10, 0x00, 0x14, 0x00, 0x0e, 0x00, 0x00, 0x00, 0x00, 0x00, 0x00, 0x02,
  0x10, 0x00, 0x00, 0x00, 0x04, 0x00, 0x00, 0x00, 0x10, 0x00, 0x00, 0x00,
  0x2c, 0x00, 0x00, 0x00, 0x01, 0x00, 0x00, 0x00, 0x02, 0x00, 0x00, 0x00,
  0x18, 0x00, 0x00, 0x00, 0x73, 0x65, 0x71, 0x75, 0x65, 0x6e, 0x74, 0x69,
  0x61, 0x6c, 0x2f, 0x66, 0x6c, 0x61, 0x74, 0x74, 0x65, 0x6e, 0x2f, 0x43,
  0x6f, 0x6e, 0x73, 0x74, 0x00, 0x00, 0x00, 0x00, 0x9c, 0xfe, 0xff, 0xff,
  0x92, 0xff, 0xff, 0xff, 0x04, 0x00, 0x00, 0x00, 0x10, 0x00, 0x00, 0x00,
  0x6b, 0x87, 0x02, 0xbf, 0xf8, 0xd0, 0x55, 0x3b, 0xb2, 0x7f, 0x37, 0xbf,
  0xf6, 0x05, 0x9e, 0xbe, 0x0a, 0xff, 0xff, 0xff, 0x10, 0x00, 0x00, 0x00,
  0x03, 0x00, 0x00, 0x00, 0x10, 0x00, 0x00, 0x00, 0x3c, 0x00, 0x00, 0x00,
  0x01, 0x00, 0x00, 0x00, 0x04, 0x00, 0x00, 0x00, 0x29, 0x00, 0x00, 0x00,
  0x73, 0x65, 0x71, 0x75, 0x65, 0x6e, 0x74, 0x69, 0x61, 0x6c, 0x2f, 0x64,
  0x65, 0x6e, 0x73, 0x65, 0x5f, 0x31, 0x2f, 0x42, 0x69, 0x61, 0x73, 0x41,
  0x64, 0x64, 0x2f, 0x52, 0x65, 0x61, 0x64, 0x56, 0x61, 0x72, 0x69, 0x61,
  0x62, 0x6c, 0x65, 0x4f, 0x70, 0x00, 0x00, 0x00, 0x60, 0xff, 0xff, 0xff,
  0x00, 0x00, 0x06, 0x00, 0x08, 0x00, 0x04, 0x00, 0x06, 0x00, 0x00, 0x00,
  0x04, 0x00, 0x00, 0x00, 0x40, 0x00, 0x00, 0x00, 0x8c, 0x2c, 0xe1, 0x3f,
  0xf5, 0xd7, 0x4f, 0xc0, 0x6e, 0xfa, 0x1a, 0xbd, 0x8e, 0x7f, 0xbf, 0xbf,
  0x75, 0x3b, 0x43, 0x3f, 0x88, 0x9f, 0xab, 0xbf, 0x47, 0x7c, 0x99, 0x3f,
  0x33, 0xb9, 0x3b, 0x3f, 0x22, 0x05, 0x46, 0xbf, 0x92, 0x2b, 0xae, 0x3e,
  0x76, 0x69, 0xb1, 0x3f, 0x77, 0x38, 0x64, 0xbe, 0x01, 0xa3, 0xb4, 0xbf,
  0xc9, 0xc8, 0x84, 0x3e, 0xda, 0xe0, 0x9e, 0x3e, 0x49, 0x8c, 0x68, 0xbe,
  0xae, 0xff, 0xff, 0xff, 0x10, 0x00, 0x00, 0x00, 0x02, 0x00, 0x00, 0x00,
  0x10, 0x00, 0x00, 0x00, 0x3c, 0x00, 0x00, 0x00, 0x01, 0x00, 0x00, 0x00,
  0x10, 0x00, 0x00, 0x00, 0x27, 0x00, 0x00, 0x00, 0x73, 0x65, 0x71, 0x75,
  0x65, 0x6e, 0x74, 0x69, 0x61, 0x6c, 0x2f, 0x64, 0x65, 0x6e, 0x73, 0x65,
  0x2f, 0x42, 0x69, 0x61, 0x73, 0x41, 0x64, 0x64, 0x2f, 0x52, 0x65, 0x61,
  0x64, 0x56, 0x61, 0x72, 0x69, 0x61, 0x62, 0x6c, 0x65, 0x4f, 0x70, 0x00,
  0x04, 0x00, 0x06, 0x00, 0x04, 0x00, 0x00, 0x00, 0x00, 0x00, 0x0e, 0x00,
  0x14, 0x00, 0x04, 0x00, 0x00, 0x00, 0x08, 0x00, 0x0c, 0x00, 0x10, 0x00,
  0x0e, 0x00, 0x00, 0x00, 0x10, 0x00, 0x00, 0x00, 0x01, 0x00, 0x00, 0x00,
  0x1c, 0x00, 0x00, 0x00, 0x2c, 0x00, 0x00, 0x00, 0x04, 0x00, 0x00, 0x00,
  0x01, 0x00, 0x00, 0x00, 0x40, 0x00, 0x00, 0x00, 0x03, 0x00, 0x00, 0x00,
  0x01, 0x00, 0x00, 0x00, 0x0c, 0x00, 0x00, 0x00, 0x63, 0x6f, 0x6e, 0x76,
  0x32, 0x64, 0x5f, 0x69, 0x6e, 0x70, 0x75, 0x74, 0x00, 0x00, 0x00, 0x00,
  0xfc, 0xff, 0xff, 0xff, 0x04, 0x00, 0x04, 0x00, 0x04, 0x00, 0x00, 0x00

};


unsigned int model_tflite_len = 12384;// Fill the int in `src/model.cc` here